[PAD]
unused0
unused1
unused2
unused3
unused4
unused5
unused6
unused7
unused8
unused9
unused10
unused11
unused12
unused13
unused14
unused15
unused16
unused17
unused18
unused19
unused20
unused21
unused22
unused23
unused24
unused25
unused26
unused27
unused28
unused29
unused30
unused31
unused32
unused33
unused34
unused35
unused36
unused37
unused38
unused39
unused40
unused41
unused42
unused43
unused44
unused45
unused46
unused47
unused48
unused49
unused50
unused51
unused52
unused53
unused54
unused55
unused56
unused57
unused58
unused59
unused60
unused61
unused62
unused63
unused64
unused65
unused66
unused67
unused68
unused69
unused70
unused71
unused72
unused73
unused74
unused75
unused76
unused77
unused78
unused79
unused80
unused81
unused82
unused83
unused84
unused85
unused86
unused87
unused88
unused89
unused90
unused91
unused92
unused93
unused94
unused95
unused96
unused97
unused98
unused99
[UNK]
[CLS]
[SEP]
[MASK]
##er
##en
d
##ch
##ei
s
##ie
##un
a
i
##st
w
b
##ge
##ein
m
##an
v
##on
##te
die
un
der
##sch
##ich
f
##es
n
##in
h
k
z
##ar
##or
ein
##ung
##it
in
und
##ur
au
##ll
##as
##at
##hr
##al
ge
p
##ten
##de
l
g
r
##em
er
t
##gen
##au
##ter
1
##der
##den
zu
an
##el
ver
##et
##ber
das
j
##ach
##am
##is
##ir
den
##ti
##lich
##ür
mit
be
von
##om
##isch
##eit
sch
2
##ier
##ol
auf
(
##um
st
im
##ck
##ro
o
##ben
##icht
##ent
##eu
##ra
##se
ist
sie
##ig
des
##and
e
##ion
##il
"
aus
für
##sen
##re
al
##ft
##us
-
so
##ann
##rei
##ste
wir
##ahr
##men
##le
dem
es
##hn
sich
##ag
nicht
eine
c
##sp
20
19
##ff
bei
##ab
##über
##än
re
vor
als
##ischen
##och
nach
sp
##hl
##ik
##ut
war
##ien
ich
wer
über
##ungen
wur
##kt
am
sein
##ver
##iel
ab
um
##wei
##ind
##scha
##ehr
##sten
auch
##ern
##he
##eich
wie
##ser
unter
##ri
##ne
##ger
##etz
##ation
##ad
##lle
##be
hat
##eil
ihr
##hen
##os
##ul
da
##ort
##und
fr
##op
##ot
##im
ent
##ing
ar
jahr
wurde
##ungs
##ün
ber
##ru
##llen
pro
##nen
##schaft
werden
##urch
##aus
sind
ha
##ster
##gt
##chen
##00
zur
##lie
durch
3
##ang
##ät
##ör
##mer
##är
bis
##sam
201
##ön
##ht
wei
##rie
einer
kom
##ische
wird
dass
zum
##cht
##la
##tel
##hal
##all
##ed
gr
##anz
##wer
##rä
was
oder
##enn
##tet
##end
wo
##ück
einen
kon
se
##gr
her
##tig
##ah
##zu
##her
##fen
du
einem
##kti
##lichen
##pp
ste
all
##che
##gel
kl
##..
##art
##schl
##ill
##mein
##ige
br
##ühr
##eut
we
le
eur
200
##we
kön
aber
ma
##ist
##ank
##igen
##zen
##iv
##ner
0
##iert
##uss
ch
##ick
noch
##geb
neu
mehr
u
##ahl
man
dies
en
haben
##qu
##ähr
##for
##fe
##og
##eine
##bl
zwei
##stell
de
##ic
nur
##me
##bt
##schen
##iz
##liche
##atz
##ord
bes
bet
te
##elt
##eiten
##eits
dar
4
ander
deut
gl
##ass
##ers
##auf
gew
##ap
gen
##du
18
zw
##aten
lie
ne
gegen
##ess
##ze
##acht
##rit
5
vom
„
##lin
ei
##ßen
fe
gemein
##fer
arb
##det
##ho
ho
##",
##uch
##tern
##ant
hin
##tes
weiter
gro
##abe
##bar
##etzt
##pl
komm
##...
##kl
##adt
##dem
##nis
##br
kann
##gl
##ges
##ffen
diese
mar
wenn
##del
##arb
##keit
et
##ss
##wie
##äch
ger
##fl
##ommen
##mal
##ia
##dern
for
##ts
fl
##äu
##ok
land
sa
zeit
bl
hier
##alt
##ha
##ktion
##ieren
##fahr
##ob
##tt
7
sei
europ
##id
##neh
##20
the
##ak
##iss
je
ihn
fin
.
gesch
wieder
##pf
soll
##ild
##führ
##ast
##ße
pol
##mit
##oll
geb
##heit
##teil
6
##assen
spiel
##ken
tr
##äl
##fol
##imm
##zi
reg
dieser
##rag
##),
son
ins
teil
##nah
##ler
##ud
pl
##wa
##).
können
199
##spiel
##ekt
##utz
##glich
wurden
##ov
ihre
##reich
th
##itz
##urg
##vor
##ierung
##üt
##amm
ö
##ert
##ma
##ale
seine
ro
##ke
##att
dam
##hm
ja
seit
hatte
##bst
dann
to
gel
##unden
8
##ität
##ften
##ce
##stand
##schie
or
zwischen
##pr
mö
##age
verl
ange
ko
gi
##hör
##pt
zusam
##ug
##19
par
##alen
##glie
zusammen
schl
stadt
el
##wo
sel
##gan
##reis
##1.
##ard
mich
##sta
waren
##ßer
##//
10
verb
nie
##per
fol
##änd
##land
##sche
##ingen
eines
##ierte
ges
##aum
##ay
alle
##ow
9
##form
##eist
sowie
##://
##dr
##ischer
##net
mon
mein
##zeit
##aut
##iger
habe
##si
##eid
##nung
men
15
##üs
##ust
##ahn
qu
##io
##tschaft
##wick
uns
viel
##tr
mus
min
schon
##lung
ex
pr
##änder
##achen
sag
htt
http
##2.
schw
##iele
drei
mir
unser
##wir
leben
##nehmen
eigen
##burg
##sk
jahre
##kte
##eute
##zeu
mo
17
##kommen
seiner
##pro
welt
besch
##fin
##andel
kam
best
##halten
bez
##fr
europä
beg
me
##".
##fü
sta
jahren
##oren
ur
##ve
dir
erst
##ett
##issen
##ue
198
##ph
##uß
##eister
##tigen
##ition
##tem
##ember
##10
ausge
gibt
mal
keine
##ater
vers
##bau
hei
pers
##kel
##ähl
will
verw
##ission
16
jo
immer
sehr
y
##rupp
hau
##vers
##ate
##zent
##ragen
##ließ
–
##fall
beim
##hne
kr
##min
##fs
##ats
,
##000
recht
##str
##nte
##spr
##chs
##onder
##satz
mitglie
##chn
##tion
##ks
##orden
kur
##hei
zurück
us
is
##gend
sü
##berg
##hin
gleich
daß
hö
gut
bo
fest
ganz
einz
entwick
frei
ob
##di
##annt
führ
doch
bau
jed
su
:
selbst
##ans
gef
stra
##mann
##ationen
grund
##was
14
##tag
wen
kein
em
on
aut
##gesch
ersten
damit
vert
##tete
kin
##3.
##weise
##ine
##stag
##ffent
bek
##geben
uhr
##yst
po
##inn
diesem
(1
##ding
##ens
frau
währ
##anden
##ald
##ium
dr
##enz
##öl
##kehr
of
##atur
##cken
##fel
##gung
##olog
eu
he
müs
1.
tra
verein
##gang
##mar
sti
gu
jun
##unde
##iet
##com
197
##ian
##dert
eben
anderen
##na
##tige
##halb
vier
##ystem
and
bin
bel
sicher
##201
co
##stra
##haus
##undes
##stellt
prä
##eiter
bereits
##ga
##rich
fahr
##amil
##rieb
intern
wür
herr
inter
##bo
mann
##ker
ihrer
dort
##ativ
jetzt
produ
##bild
##tier
##gs
##chte
##kon
##ös
##unter
##/1
12
##ult
##äd
##lage
erfol
##hol
##ache
nam
it
##als
dieses
während
##cher
lu
##äter
haus
##ta
##gte
##fte
person
kommission
##rist
gehör
##ärz
zahl
dab
##ander
ihm
ihnen
denn
entsch
kar
dabei
heute
jedoch
##schland
##ww
##esen
ort
nun
##/0
##mittel
##ange
##richt
##ub
##sehen
##auer
ben
gem
dien
##igkeit
menschen
frü
##äm
neue
##:0
##samt
sol
##setz
groß
##www
letz
##schaften
klein
##sto
##ffe
möglich
rei
arbeit
##gemein
hoch
##lo
di
etwa
ra
##co
##ister
##rat
##ober
ph
##gar
näch
##halt
##30
erw
euro
##ütz
##schieden
ober
##licher
mitglied
##ionen
ihren
polit
muss
ende
stell
la
##:1
süd
/
geht
seinen
##eln
europäischen
star
part
wel
##orf
aller
2016
##ständ
##ven
fa
bundes
na
beste
grö
dich
##stellung
lin
deutschland
ohne
bür
mittel
##ko
hal
##fahren
##zeich
wirtschaft
unternehmen
ta
##ünf
folgen
famil
ser
##lagen
##unkt
##ym
##are
##jähr
##ossen
##rechen
##kr
grün
##so
11
fil
##für
##ichte
##zei
einge
müssen
erh
ant
##hau
kir
ern
wissen
##50
##ichtig
##dent
aug
##eicht
abge
30
##ält
später
kinder
##je
str
##bes
jul
viele
einf
jan
##:2
x
##nahme
196
sozi
##pa
inform
##ational
##od
ru
spr
##man
##mus
##bru
gest
##ritt
märz
##cke
##ade
seinem
pf
*
außer
##klär
ir
##ierten
mill
neuen
##isten
##nisse
stand
lei
uni
##zw
##nahmen
andere
##omm
##ds
##legen
stud
alles
weiß
kommen
##ule
fre
etwas
##zie
##euer
besonder
gar
##asse
erste
form
nov
##5.
##:4
##meister
wohn
##ip
weil
sep
##stadt
##ys
##keiten
##fa
##arbeit
194
##th
zei
##des
%
##äre
##gleich
##heim
##fo
##eter
##bei
arbeits
gemeinschaft
##4.
##sell
13
frank
##igung
lang
##dien
##angen
##alis
##yp
li
##ffentlich
##gramm
##zahl
nord
##ere
##nit
rück
liegt
##hof
not
##ct
##von
haupt
schul
med
##äß
hand
handel
##innen
##oss
##ordnung
##blem
berlin
bede
##äng
##200
##tikel
also
neben
##rage
##immer
##pu
##lam
machen
weg
##:3
##ruck
nieder
##eg
pri
##sicht
weitere
worden
##alien
lo
gab
##ende
rund
##änger
finanz
##werk
##kten
techn
##ogen
dazu
bild
ju
verschieden
musik
juni
##ina
##ott
##grund
nein
##wend
per
##gangen
##ruppe
##wohn
pa
##zer
##ller
##hmen
##bahn
##esse
gra
##fä
##uten
##olit
##ikan
konnte
##ätz
##ies
##falls
##ations
##enden
##ktur
##if
deutschen
erl
statt
...
gemeinsam
op
bereich
##8.
—
##stellen
##ka
##hem
beiden
##gew
##hand
##itzen
##ball
##bs
##jahr
beru
ad
##reten
wirk
##igt
tag
voll
##tember
wasser
zun
diesen
##sa
##fern
sagte
##ätig
##gaben
##7.
nr
##ment
##:5
##amp
##ite
august
##uar
apr
##tro
##hun
okt
##6.
bil
woch
könig
km
##ganis
##grün
tro
sollte
bestimm
mai
dan
sehen
erz
+
##iff
schwer
unterst
hotel
anf
steht
september
allem
sondern
##welt
##anken
meine
poliz
richt
region
schne
##ünst
wa
##üb
bef
dez
verfü
##ucht
##iere
gemeinde
##achte
juli
##altung
oktober
einige
ersch
##spro
##ison
hol
##umen
##tz
univers
platz
bürger
##ktiv
verk
november
##par
som
artikel
##kun
ze
einzel
sagt
spe
januar
##scher
##führt
##ielt
##reg
scha
##reichen
##zeug
hinter
##ultur
mün
franz
##bet
bar
##itu
ka
##ahmen
##ive
##entr
vol
##ore
hät
##aufen
dezember
verm
##tigt
problem
nichts
blei
##9.
bit
##bach
denen
april
##gie
[
##mm
regel
aufge
jahrhun
##yn
beispiel
##recht
##hlen
prozent
##äft
##org
wegen
erklär
##da
hil
at
rat
ä
fünf
##htm
##chten
sam
##eitet
kommt
##rieben
##elle
##stein
##trag
##schlossen
fer
##essen
darauf
##ände
##sident
kurz
bie
##ou
##ca
film
##ib
hel
vie
(2
##orgen
##genommen
fall
krie
##ennen
##wohl
hast
würde
##ändern
##zug
frie
offen
##ließlich
##prä
##schri
##ßt
##wort
lebens
##up
195
##wirtschaft
##raft
befin
personen
lassen
finden
2.
einfach
193
##punkt
##one
&
##ont
entwicklung
##ide
##sellschaft
##ba
ihrem
##gehen
##sterreich
kap
##vo
art
reich
##ckt
fort
##straße
##zentr
maß
##schluss
them
rechts
macht
##iker
##gabe
west
hatten
dis
##iner
##no
zweiten
##sie
ol
wahr
##eite
großen
landes
##sh
heraus
tun
##ew
##äf
##legt
##lament
##po
##äs
##wert
##ager
##urt
polizei
woll
##weil
gener
inner
new
res
glau
##inger
##eidung
##nten
christ
kat
##schutz
##mo
prof
##staaten
nat
#
##obil
##jekt
seite
##ins
##dings
##gri
kü
kosten
##ählt
dafür
don
dank
com
##arr
##cker
##mö
deren
cl
nor
akt
rich
##schnit
##iga
##üss
##ice
##ennt
große
erfolg
##itel
bed
##opp
gehen
##mals
##dung
##use
umf
rahmen
fuß
»
2015
##ruktur
##ächst
kun
##:00
frauen
##öffentlich
fun
##bildung
##derung
zentr
##ichts
##feld
##sprechen
##kunft
inst
##icher
fern
##ron
##raum
##utter
allerdings
ziel
daten
##achsen
end
##25
wollen
##eitung
##bruar
25
##az
stehen
parlament
##los
##anst
##führung
##gegen
##ruppen
unsere
##ingt
mitt
##sted
februar
##platz
##ity
##urn
davon
##achten
ide
sk
angeb
(*
21
##schw
bas
##pe
##eile
##schlag
qual
letzten
##bert
##inen
##tiert
sport
##heits
##gesamt
##verb
##eig
mil
werde
##blik
2010
##asst
wahl
##....
ba
##rad
allen
europa
##annte
bu
##cl
con
##eiden
ter
get
pm
##bung
##kreis
##orn
millionen
einmal
veröffentlich
##ci
saison
tre
wohl
aussch
bekannt
bist
met
unterstütz
besuch
22
##su
##die
##schule
##ologie
##hält
dessen
system
##leist
alt
insgesamt
##bereich
##amer
##minister
besser
##ex
san
bezeich
wor
##nehmer
##äten
##auch
namen
##ums
dein
##zt
##stehen
##teilung
##8,
hör
italien
##bend
hab
##schied
jugend
##ätze
##-1
kunst
flug
##gesetzt
##ator
##-0
rel
pass
##bel
drit
buch
sollen
organis
##son
ebenfalls
verkehr
car
lehr
##weg
könnte
sozial
verbr
##con
kultur
##dorf
##ell
lange
män
beschäf
bay
wäre
mer
##hle
eg
österreich
fä
##lungen
ev
##fon
##uer
50
##ech
##hung
nächte
##old
##ika
##handel
##ationalen
priv
##hö
sagen
##agt
as
zunächst
##22
los
vo
##annten
##abl
##chsel
##mäß
tim
heim
##anten
bahn
dre
för
pos
100
ii
##ase
engl
bitte
##our
##fil
##auft
wichtig
##199
mag
dienst
direkt
2011
preis
##ffiz
geschäft
##einander
##erst
jahres
##olf
##eren
2009
markt
schwei
ehem
außerdem
##setzung
##mel
##tlich
indu
##wahl
sen
##hil
win
abs
##oten
##dete
23
##gestellt
##olitik
##auen
pu
##/201
##assung
natur
sal
geld
##isches
##öff
zie
fot
gehört
ergeb
familie
##stat
erhalten
##ps
##igten
wi
##")
weit
rad
ag
##wor
##ichten
natür
##uhr
##stimm
##aub
##aul
24
##kur
betrieb
##ellen
ener
mei
##stens
##ign
ca
##heiten
fast
forsch
##forder
##ock
##druck
tätig
jeder
deutsche
tür
geben
3.
pat
##jährige
##ül
nah
klar
welche
##ktor
##ogra
zehn
##mon
##alter
allgemein
##ktionen
##18
national
##spl
##äuf
leist
ging
##sätz
krit
?
verst
zwar
rom
2012
2014
warum
##änge
##ure
##hel
##ja
##ölker
##ative
anfang
2013
##vest
2007
##esser
##krie
gerade
kn
ed
vergangen
##spieler
##besonder
nä
fir
bew
plan
##red
darüber
besonders
ok
ehr
üb
this
##15
einsatz
_
brau
frage
##ismus
##äss
##bewer
##istor
##vert
char
##ieg
staats
jeweil
mark
12.
kirche
französ
##llt
dür
betr
sitz
##ance
##fft
##besondere
##,5
##linie
##arten
wirklich
nachdem
arbeiten
schnell
##sport
luft
##ppen
indust
pra
genau
gesam
schön
##3)
##ek
team
ind
gesamt
alter
##ings
wich
abl
entsprechen
sohn
aufgrund
##reise
russ
##ac
##üssel
##endet
##licht
##xt
“
##äude
rein
bzw
zudem
gesetz
sechs
##räge
ged
gil
familien
##opf
##lleicht
##verkehr
##80
anderem
'
##ise
##yl
€
##üf
stellen
elekt
usa
sh
do
fel
wochen
wert
programm
##zogen
##fort
wollte
##nam
größ
kreis
mü
gegenüber
##utt
10.
sc
bezie
##part
setz
19.
vielleicht
2018
##ette
partei
##system
komp
##stück
insbesondere
##ewg
##hann
("
##ichtet
laut
##ünd
titel
regierung
befindet
erd
##nete
ansch
##äche
informationen
fo
hätte
universität
gemacht
ehemal
##60
amer
40
vielen
##ande
##verl
nutz
##sitzen
tor
oft
union
beginn
##uren
##que
fehl
arch
##yr
span
unbe
##ial
##kir
sollten
ham
##häng
##aren
##eigen
##21
beit
##ierungs
##anc
fü
##sl
##eitag
##jo
##int
##markt
fach
mitgliedstaaten
go
bü
beteil
staat
vorge
stre
2006
##hein
port
##emen
freund
##wehr
weniger
euch
mehrere
##24
daher
präsident
##ond
kommun
gesp
feuer
##fest
umwelt
sonn
har
20.
##ären
eigenen
bisher
##inner
industrie
##arbeiter
bi
trotz
lit
##ome
vater
möchte
##cu
unterschied
##wohner
geschichte
änder
##stelle
entscheidung
wes
künst
##onnen
##verein
sommer
gott
tele
schwe
##ly
##dienst
ak
##gebiet
##ote
spielen
schwar
##aler
wett
rates
##deut
stat
innerhalb
##ützen
lö
##bur
##gn
##line
##hnt
öffent
##zess
##met
europäische
##ix
gesellschaft
besteht
##itäten
zuge
kil
##ief
wenig
mutter
urspr
##frei
band
##ument
##40
entfern
##örper
kan
wirtschafts
2008
bru
berg
zul
wissenschaft
funktion
##reiben
phil
##nach
erg
sogar
##weis
früh
##ari
##tra
erhielt
##ute
##glichen
##reiche
schließlich
##schnitt
max
gilt
auto
johann
11.
alten
##indung
deshalb
invest
tour
heil
##komm
##leben
weiteren
herz
fußball
##teilt
gebr
werk
##ire
gast
4.
##gruppe
seien
empf
##li
geh
##völker
wien
aktiv
oh
früher
##4)
##weit
15.
lau
jahrhundert
seiten
danach
##spe
tri
##äus
verschiedenen
##ren
##äum
nacht
höhe
begann
##antwort
maßnahmen
url
##stre
verordnung
##etten
##&#
ost
##1)
verd
2017
fragen
##möglich
straße
unters
##vin
##.)
##gten
##dition
##zimmer
##scht
projekt
keinen
##woch
##nt
##liegen
##lungs
freitag
##90
##iti
frankreich
##schul
".
##under
samstag
##eint
13.
##unkte
sonntag
##ässt
##publik
##onen
inte
energie
##ima
##steller
##sel
18.
veranst
dat
2005
##ipp
natürlich
##schein
##urm
##blick
vertrag
bestehen
beide
eng
bevor
(19
musste
histor
##folge
brit
wil
kor
gute
190
gesund
name
raum
kontro
schau
##ließen
##produ
##denten
##23
außen
##inde
##2)
##etter
##erne
##17
##wirk
ren
##stoff
##ump
gewesen
##hang
##wür
=
##tiger
beschäftig
##16
see
produktion
sieht
##ula
acht
gruppe
sor
zug
##port
##voll
##richten
stär
höch
##wär
bietet
pap
mel
aktue
27
stein
nehmen
##haupt
##schriften
##richtung
«
meter
##rigen
größer
##tragen
)
##frie
rolle
##bh
stark
##zeitig
anwend
16.
##ital
typ
##inge
zusätz
kleine
liegen
tats
nahm
besitz
17.
deutlich
##uchen
##stu
bem
##ons
##arbeiten
##vi
##wagen
##enzen
##26
moder
##ana
##14
münchen
>
jeden
geschäfts
##immt
pla
peter
##kom
##ied
wechsel
bedeut
thema
post
2000
ps
##erk
##gef
##öst
##tieren
##lieb
##sweise
##lang
##ometer
seines
##sb
heu
kleinen
minuten
sonst
##ai
findet
schutz
zeigt
volks
zusammenarbeit
hilfe
##pg
5.
##west
schri
##27
##euz
vergleich
##hi
##unt
zimmer
##“.
erk
##lex
städ
donner
landwirtschaft
##altungs
tage
ut
mr
##eier
##dingungen
tran
##utzen
##the
##por
bro
meisten
gegeben
stu
straßen
bad
verf
disk
tau
heißt
14.
gelegen
del
sowohl
##see
##liches
##reifen
##49
innen
internet
gegrün
##“,
##eitete
##atten
flü
erstmals
##maß
##13
##gesetz
##ymp
schm
stamm
##neten
lage
##achst
tod
(1)
kraft
##wiesen
ähn
2004
lok
##ummer
bevölker
unserer
tem
sieben
##ffer
äl
dad
##ämp
##ationale
##rech
##alten
1,
wider
26
paar
richtung
##buch
konnten
†
##els
##otor
hinaus
##kam
politik
##ächlich
meister
##fäh
verantwort
mitte
park
##of
##5)
würden
allein
vertr
start
##ählen
kunden
staaten
alb
##ark
wit
##ochter
führt
donnerstag
##ry
##führer
##anzen
##seite
eröff
kind
##ehmen
##llo
bleiben
##lei
fc
##halts
##sn
ke
dro
karl
­
##29
##sc
##fahrt
amt
##igte
##fehl
morgen
##geber
mart
##do
##istischen
##28
##1,
gebiet
##zip
##üler
minister
schle
##ücke
##plan
2016,
voraus
gm
ehe
##amt
tradition
far
##oph
dun
gewann
wettbewer
##6)
##igkeiten
jem
29
##liga
bereit
##weiter
##hungen
damals
grie
##nu
##wand
jahrhunder
##spru
woche
##wig
sil
häuf
halb
##burger
fand
##ath
wald
##ammen
schloss
wind
steuer
##rägt
60
niederl
##wegen
##rän
deutsch
mannschaft
dorf
beruf
versch
persön
folgenden
##ight
##bür
stunden
##70
6.
##bi
##kan
länder
red
folge
blick
dom
##vol
spezi
##ene
##ändert
##staat
##alität
##ieten
##ael
app
##ws
glück
mensch
##hc
lässt
absol
bedeutung
##89
##lichkeit
männer
ass
gebäude
##iken
##urop
##hausen
augen
##med
##2,
##gi
##fiz
##agement
che
struktur
inn
vergangenen
zukunft
hervor
erhe
##arch
##krä
##jährigen
##hard
minde
zeich
##wasser
auft
gä
9.
stimm
##agen
danke
rö
##wissen
##utzt
pe
profess
##urs
mitglieder
no
##gra
##ativen
##uf
##itär
##schinen
##mitt
##kmal
##schlä
##nahm
stellt
30.
##zü
##samm
q
interess
dopp
sin
by
##weisen
##bil
anzahl
sicherheit
##dn
##go
##reicht
##techn
##iser
wein
internationalen
sprach
##aly
winter
##87
gesagt
nächsten
letzte
wobei
mode
liebe
leicht
(3
##schrift
darf
##reter
international
##bte
##iges
künstler
##gor
##va
ländern
##bu
##riff
zweite
offiz
##rt
##struktur
fertig
erreich
##itter
##ösung
af
pal
##baren
21.
posted
may
ni
körper
bringen
09
rot
##les
(0
verschiedene
erhö
bestand
##isse
einsch
dok
##/17
7.
notwend
netz
mat
web
lern
kal
irgend
bericht
tochter
tö
##deten
schrift
mittler
##ikanischen
##ware
05
verz
##okrat
zuvor
##ork
spielte
##utet
erf
##recher
deutscher
##ließend
lag
##/9
jeweils
stim
1990
gefunden
##85
verwendet
führte
##fre
##änden
##geln
mitarbeiter
##bin
##drich
189
erinner
verfügung
##mitglie
eltern
##ppe
john
##ions
22.
junge
##fach
bank
04
##hnen
ursprün
bra
anw
##res
höher
##politik
##tischen
nahe
##test
##jekte
spieler
hohen
druck
##apan
halten
##vice
liste
deine
partner
kna
ganze
richtlinie
##vier
ac
##staur
bezeichnet
##ächen
general
##takt
##bare
mor
abend
07
hein
##omat
##/16
ster
schwier
##ständig
##standen
boden
mom
##gu
unterstützung
000
leute
holz
tel
##ama
freu
##itionen
8.
verbesser
mu
kompl
tut
##to
samm
schule
muse
meer
erschien
bus
mittwoch
##own
muß
##tin
##ikation
hätten
sl
##leistungen
ten
##uld
##pen
bürgermeister
fal
kirchen
##llig
bleibt
##jpg
##ätzen
besten
##ücken
25.
##abhäng
##eta
##zeichnet
##ino
köl
##ikt
##ement
kilometer
michael
führen
##urr
brei
eis
##oper
neuer
erwä
einigen
##45
äu
##ängen
##izin
00
daran
##schuss
treffen
lux
gek
cm
ebenso
mi
verfahren
vide
##dat
##gien
bern
31.
nähe
zer
##vie
verpf
##fra
##itze
##zeuge
thom
krieg
08
##abel
bre
telefon
##iver
##get
vorsitzen
genannt
online
##äuft
##ese
tier
integr
##rid
##kar
##ong
##3,
##chter
•
##üd
prin
##ych
folgende
weltkrie
bayern
##11
jün
wesent
##abil
kranken
##herr
##ole
eisen
##86
kopf
untersuch
wort
##äte
schüler
##2-
##ish
##preis
##yer
##irk
gesehen
##statt
ew
chem
80
erfahr
##ferenz
weiterhin
##lauf
fra
gewähr
##atte
##arf
stelle
##laden
sicht
jahrhunderts
##hafen
06
japan
##nissen
könnten
##fluss
##hilfe
##wur
##ica
friedrich
##tens
##nei
erneut
##fun
##führen
kolle
verkauf
derzeit
##ms
amts
angaben
hotels
##by
##gebr
bot
##stieg
##zep
##artet
##7)
##ju
##ane
28
montag
militär
##vis
##verband
erreichen
schö
handelt
##76
ang
eigentlich
28.
burg
obwohl
##üsse
##sprochen
got
##/-
##schaffen
gehören
##uchs
bal
24.
probleme
ihres
weise
##furt
##ädchen
solche
##itut
türk
##griff
##mäßig
tat
!
##.000
guten
##8)
##zz
bald
erklärt
##ches
konst
35
jungen
##ört
qualität
trat
##ituation
möglichkeit
einwohner
deb
erster
mater
##üst
eigene
##press
##handlung
23.
you
kaum
##rug
begr
geboren
01
restaur
##sd
jede
ep
##istr
trans
meist
##.,
##för
anschließend
##php
##alog
##bn
ließ
gehörte
ku
doppel
pfl
##off
##ae
##eien
##kn
##teten
beispielsweise
##zept
##verfahren
neun
##endung
##+1
leich
oper
zahlreiche
tages
schla
entde
##enze
alex
helfen
29.
dadurch
super
einzelnen
paul
blieb
qualif
erweiter
schiff
utc
##iten
##berger
entfernt
bevölkerung
##abr
]
##akter
zeigen
essen
##räger
##html
anders
reihe
richtig
liter
verr
##bank
2003
emp
server
verste
##reffen
mach
̈
meinen
ausbildung
##handlungen
ergebnisse
##ski
;
##setzen
##stät
##stellungen
gleichzeitig
##han
##35
##reibt
errich
mm
kauf
erforder
vereinigten
ü
zuletzt
olymp
heimat
##ham
tot
hinzu
##oster
alte
##-,
rhein
##inst
verkehrs
27.
##haltung
medien
hor
anti
03
##gesellschaft
vö
dienstag
liefer
verwaltungs
##eiger
normal
parlaments
tex
##einen
somit
erreicht
##ec
##pol
jedes
geist
##sei
forschung
##zus
##fläche
übern
oben
##ling
bon
##4,
##zentrum
häufig
york
##richtungen
bö
##tierte
ernst
##spiele
eher
##angel
##schau
dauer
##kirche
##vel
##ius
##zig
hans
##kor
##edig
##ars
bekommen
##ara
##usst
paris
##ondon
##sv
90
thomas
berufs
##75
##stimmung
öffentlichen
##istische
##fahrer
##ehm
##sichtlich
gruppen
##ftung
kamen
begl
are
geworden
##kret
26.
spiele
##programm
regen
landkreis
privat
##nr
öffentlich
##zwischen
kreuz
hof
##daten
andre
ach
##gebung
##iko
schei
##hu
darunter
##geführt
##alisiert
70
##anlage
machte
anzu
##üter
##lieben
##12
##tionen
versuch
##how
prakti
##lad
##ierungen
sogen
klass
entscheiden
zerst
##öhn
##jf
verbunden
##schrei
vorschlag
##verw
##ink
gegründet
##sich
mädchen
imm
##orben
1999
##6,
##zeugen
##wind
foto
kampf
##ele
jose
beob
offizie
erle
hey
trainer
kennen
##arm
2001
republik
##kraft
##43
tabe
ehren
stellung
##asen
unabhäng
##tic
sofort
dritten
##äuser
##5,
##gebaut
##arbeitet
##auber
2002
erfolgreich
glauben
found
reise
miss
##liefer
london
vi
martin
##ets
formula
äußer
##79
gmbh
anwendung
train
##film
eigent
°
eingesetzt
gefähr
laufen
schweiz
##durch
##achtet
konz
##schung
verteid
##ategor
gleichen
##istik
##ritten
meiner
##seh
stellte
archite
##iar
ther
herrn
##ograf
##12.
##mark
prom
##mu
##othe
bele
##hörden
##örd
bruder
arbeitete
kre
##andid
##cr
##keits
ris
baum
##ents
mio
veränder
##ausch
okay
##83
##iegel
größten
2,
##merk
spd
gold
##iete
##anw
akti
##vertrag
##cy
##sidenten
##immen
betro
##allen
ausl
##unternehmen
untersch
jähr
brand
##ängt
motor
zusammenhang
##vid
##amar
raus
spezie
##altet
veröffentlicht
kol
anteil
unseren
##wegung
insel
königreich
zahlen
##nungen
spanien
hu
licht
hamburg
zwe
##icken
tu
##"-
nörd
##üfung
##amen
##urrent
öff
sim
##sg
initi
gewählt
gemeinsamen
gerichts
##anger
darin
##wertung
knapp
tal
##indust
provin
##reisen
##organis
vorh
##win
unver
politischen
##alisierung
gelten
links
##gangs
produkte
norden
finanzie
einzige
entwickelt
##ame
ton
##ada
sieg
##das
grenz
##fan
rech
0,
aust
##sent
##gest
##haben
1980
##halte
##cc
##ors
##ake
hause
ergebnis
befinden
##dens
##mand
wunder
##pd
jur
(2)
##ash
##tische
##haft
air
##wald
punkt
erfü
isra
##ile
gäste
##ted
ul
hohe
mindestens
##folger
##peratur
##tigkeit
auszu
verloren
wh
sand
##za
##bü
##cn
theater
lud
exper
spielt
##lege
ans
##spruch
##frist
##schafts
##7,
##ution
bedeutet
nutzen
neues
##gliche
einger
gö
##bringen
##wn
##spolitik
##hoben
gepl
##ziehen
##len
vorber
##umm
feuerwehr
zeu
##ona
lauf
bieten
186
##:30
cor
institu
02
##räch
##sammlung
aufgenommen
##ufen
länger
##fallen
current
wal
##elte
##eilen
posit
##band
##isierung
##ike
##kap
##39
absatz
##iven
##arbeitung
schie
betroffen
stück
##bruch
eins
##hs
my
##illa
ganzen
bedeuten
siehe
##bie
##ennung
vis
medizin
besucher
les
##gern
verbindung
ecu
##unsch
##eng
##iums
glaube
gemäß
mass
##uk
entstanden
##puter
aktu
sonder
studierte
sach
haup
##amme
roman
dän
jung
ball
hann
##meter
vorher
##cks
##ated
##präsident
auftrag
dig
##tiv
volk
##eis
##kosten
##mitteln
##zehn
gekommen
##bro
##84
##zeiten
##ograph
##sitz
defin
sym
sek
handels
##tisch
##park
gebracht
##ürz
jen
##industrie
nimmt
##ala
##nehm
##legung
##will
pfarr
ehemaligen
zoll
fischer
spa
feld
themen
gerne
##sph
currently
##est
##älfte
dagegen
belie
##gress
reque
situation
##helm
##frage
rie
vorhanden
##aucher
kaiser
gefü
##entwick
fahren
psych
##out
getr
##fter
main
kons
1998
##kräfte
##gemeinschaft
tagen
##isiert
sex
köln
tä
schaffen
##itt
älter
willst
##omen
##ev
tv
gestellt
id
präsen
indem
verletz
wol
einzu
nachbar
##betrieb
maxim
monate
##stud
mobil
ziff
##34
##eth
weihn
sprache
publik
##ils
##ftware
##sprach
hum
##tent
##grö
gottes
portug
aktion
krank
##eben
##geschichte
##2/
hält
##ollar
##mehr
times
##rimin
verhält
arme
verschw
wolf
##har
großer
salz
wün
firma
moment
stutt
leiter
leid
sinn
russland
##nie
position
pop
georg
sprechen
zwöl
dürfen
39
log
##zeigt
##werke
##hlt
bor
van
##gemeinde
frankfurt
##mt
##akte
kannst
##tigung
forschungs
erfolgte
##ivi
##af
männ
französischen
##lingen
hallo
teilweise
stahl
bilder
##ward
##hy
##lan
nationalen
##setzt
standard
zentrum
##kauf
##altungen
requested
bezug
lü
osten
top
1994
verfol
test
##stände
##day
internationale
##aktion
ker
##flug
rechte
bildung
##linien
##77
tatsächlich
##1/
##gessen
##zeichen
orts
os
repl
süden
tragen
produkt
col
1995
kern
1996
##ordin
kennt
gelang
##ton
##88
punkte
rum
##gehend
mad
jemand
verfüg
##osition
##losen
##spart
1992
chr
mehreren
##ines
##rop
schwarz
demokrat
##riere
bur
##forderungen
##ku
ie
gre
##ley
unternehmens
überra
terr
ledig
##ritte
gericht
garten
arm
jedem
berück
tie
inzwischen
schweizer
##cen
##ante
lesen
##maßnahmen
wahrschein
##wurf
##schluß
heutigen
##ost
christian
##uni
hen
gebe
günst
syn
cal
##fi
schu
##gro
##gart
umfang
##lu
##ischof
kontakt
fu
genommen
##icherung
studien
entstand
dei
dennoch
##inal
hören
##schine
1997
##räum
##36
zog
kriegs
lediglich
##derte
restaurant
dor
metho
sicherheits
##hnung
##gericht
gesamten
ga
darum
##hte
sozialen
erreichte
politische
can
selten
kloster
##halle
##abend
innov
text
unterstützt
##ames
fein
##ückt
sah
comm
mos
##tur
500
sv
rest
china
geändert
1993
##ns
israel
verwaltung
eid
strate
verlassen
monaten
##bus
##nas
blut
sorgen
reply
##bten
video
anerk
graf
1970
vorgesehen
flughafen
##11.
übrigen
hart
deta
brie
##musik
##sprache
##flü
##10.
##ld
##ki
erklärte
ferien
haushalts
verhin
##mannschaft
übernahm
autor
reden
schritt
##lose
##ienten
att
westen
wichtige
##klasse
konzentr
##anne
geschlossen
##zy
erhält
len
künf
ergän
##barkeit
angebot
erheb
strom
schlag
nachrichten
##acher
abkommen
##schläge
##orge
opti
##ließt
krä
##auern
genug
##hre
tief
bein
dach
wohnung
fiel
##name
##ias
fei
##lassen
hälfte
hy
##9)
##mittag
vorbei
##cel
einheit
##nn
computer
##prü
sat
##ola
teile
anges
##site
##uth
",
erziel
monat
zeitpunkt
31
##til
anl
weißt
##wi
enthalten
basis
verstär
turn
wenige
##gruppen
interesse
überhaupt
##dy
starb
genutzt
##ita
45
förderung
##asste
bewer
##pel
##osten
##ziert
##jen
##umente
unmittel
instr
185
##jet
##orgung
##netz
maria
##ausschuss
(4
##seiten
pun
sir
##spielt
##erv
berliner
##kung
frem
bezahl
##ungsbe
tar
beein
##gebracht
bill
arten
36
180
teilnehmer
just
vertreter
##ürf
##gelegt
prem
##":
passiert
##amerikan
regionen
größte
gemeinsame
##8/
album
##pers
##erweise
leu
berich
version
fen
brauchen
setzt
##pfung
##finden
dire
kant
ludwig
##iam
fried
##xis
setzte
ruhe
kindern
zwölf
bull
##ico
##urnal
##9,
##gner
sache
##riebe
hoff
unfall
##wesen
##ago
##mü
könne
bege
ebene
zentral
setzen
##view
allgemeinen
himm
kla
mess
##zial
maschinen
wechselte
##spricht
linie
##aust
wagen
inkl
##wegs
##team
prozess
ursprünglich
langen
##pla
##gefähr
##igr
##ktoren
relig
##teile
##gramme
##kennen
##fälle
kathol
erzeug
##cs
bab
##stands
##lern
##äufer
sub
pil
##gut
gesamte
überw
##ause
##ni
enthält
anderer
##zustellen
##bez
aufgabe
kategor
gemeinschafts
ordnung
benö
##ämlich
klima
university
milliar
##regierung
bayer
##chan
##macht
glas
grundlage
hü
kämp
lager
folgender
analy
robert
##äne
##handelt
prot
time
errichtet
provinz
##wissenschaft
meinem
opfer
1991
personal
##trem
evangel
angst
erb
mw
##ividu
##ragt
##33
austr
##eisch
verwendung
lehrer
gesundheits
leip
information
schaff
##teilen
erwer
keiner
charakter
##kat
##iens
##stellten
##fn
fehler
geeig
##ague
german
verlie
ständ
##wirkungen
heinrich
zusätzlich
wachst
##bürger
##bildungs
erlau
begriff
modell
##ologischen
##46
hig
öst
idee
trump
##anlagen
bestimmt
suchen
##sende
museum
##dessen
eint
kehr
nämlich
stil
leg
versucht
##iden
haupts
##82
abzu
##rang
weltweit
professor
##bad
##tu
##ierenden
##over
bringt
##ival
##tor
durchgeführt
##rechte
angel
bestimmten
umfassen
absolv
1945
schluss
##steuer
##ize
gewalt
welches
wilhelm
flücht
tur
schauspieler
##wechsel
scheint
##leiter
gesundheit
spricht
sem
schr
serie
bestimmte
individu
manch
##ary
##ierter
##igur
##frieden
besondere
##etzen
bedingungen
city
bahnhof
quelle
##mi
##ieß
gere
stuttgart
1989
lösung
karriere
##äger
entgegen
##atik
david
verbind
fluss
presse
##mail
##ständigen
edi
förder
##stoffe
schrieb
wetter
##stellte
##linge
##zun
bilden
##kampf
##schiff
{
rang
abschluss
betriebs
organisation
##kw
stimmen
lat
pet
##igungs
sto
gemeinden
##hor
##spar
ausschuss
cdu
geführt
real
from
tsche
##78
##neu
##tert
##atoren
einst
##garten
##/07
jes
##spielen
zunehmen
##frika
300
##tik
##bol
spann
aufgaben
leit
##fj
schn
preise
##.:
##steil
ww
33
abgeord
##fordert
##polit
##spann
##fassung
##serv
##ble
##schr
##74
##ano
niemand
##km
(5
stellvert
arbeitspl
##zul
##länder
rede
glob
##bli
##fb
##tiges
genehm
##assungs
ermöglich
##nes
berech
##oto
now
zweit
##tive
##gere
##ows
##raten
beginnt
##formen
begrün
camp
zeitung
behörden
benutz
damal
dur
literatur
absch
##iegen
##eh
bildungs
home
nö
erzählt
vir
##/200
wär
kg
sonnen
verhandlungen
institut
erfahren
##nd
##omo
dahin
##vention
herren
##haber
zugang
mussten
sm
inhalt
ausger
brü
verab
kontroll
##ktive
##eb
gemeinschaften
##–19
leistung
ied
weltkrieg
wichtigsten
##heira
##rechts
##81
änderung
3,
##via
bestä
gol
##reibung
##ymnas
exist
##ders
##kü
anzei
völlig
vereins
software
sing
griechen
milliarden
sw
sow
kleiner
gewinn
##indest
kombin
##73
##amarill
##setzungen
##gül
ungar
dinge
##bericht
##zeichnung
liga
orig
leistungs
mik
teilen
##ef
##last
##ington
##tp
gewer
ruh
gewinnen
zusch
gebaut
spät
##lla
verhalten
folgt
##ii
wahrscheinlich
folgte
##olo
strecke
##ata
kontrolle
##sal
kooper
##bedingungen
klasse
antwort
1960
##dig
antrag
wild
sign
gas
regierungs
##gelt
redu
warten
brachte
arbeitnehmer
aben
##inter
cr
pflanzen
##anwalt
##stern
verletzt
##ient
rob
röm
freien
tätigkeit
job
##ologische
##1-
vermut
suche
##meisterschaft
beitrag
##vorschriften
##fast
##wen
##demie
##fäl
##lands
150
silber
##redit
tschech
##ffel
berichtet
##4-
vereinbar
elf
lass
##weile
bud
letzter
##pfel
termin
ereig
##48
##ters
elektr
führung
##dis
##zut
##punkte
##nungs
##ini
##zwei
fläche
einführung
##vorsitzen
##brit
kandid
nächste
reform
##df
stärker
##oc
ermitt
##ochen
##finale
service
##troffen
organ
##wart
zumindest
gründung
##sti
wm
stabil
fällen
läuft
möglichkeiten
aufzu
##sprä
immobil
cap
denken
##zeugt
sinne
matt
uz
gründen
einfluss
##une
klin
beziehungen
politiker
##tags
##griffen
verband
##uche
##holt
##ickt
##av
räum
bislang
angeboten
viertel
szen
2019
stock
schreiben
##krank
##):
mul
##fähigkeit
entsprechend
##geschlagen
namens
ros
trotzdem
<
##bed
##ckung
bekannte
firmen
pan
manchmal
(0)
wann
##serie
club
altern
rde
waffen
lebt
por
##üm
##chef
technischen
##gänger
arbeitet
##uel
umgebung
$
##sr
##merksam
##mode
automat
##werte
install
wander
braucht
aka
mwst
journal
dritte
##ählte
perfe
##ya
herbst
##rige
preu
geburt
##ical
##kin
tiere
##chester
ziehen
##runde
##pan
koordin
ziv
edr
nummer
##gas
konkur
schlaf
##erseits
website
sau
erfolgt
elektron
iii
##volution
feier
##ads
kenn
##index
streit
kamer
##hörde
unterstützen
wand
johannes
uk
iv
anlage
##send
kop
aufmerksam
##sburg
(200
##lig
ott
with
schützen
weihnacht
agr
##book
##far
unserem
hafen
bv
erwartet
##ländern
regional
##ision
##mitglied
jüng
sowjet
versuchen
fallen
schulen
##sein
##71
1988
schrei
##ützt
##frau
trägt
vertreten
kritik
mex
©
##........
größe
getan
##geld
##mund
entwicklungs
polen
informations
entscheid
lernen
beton
##95
zeitraum
aufbau
##verwaltung
vergessen
##mor
nation
##itzer
##worten
##sper
falls
wettbewerbs
##ates
fax
##ständige
heiligen
beträgt
mittlerweile
jeweiligen
nutzung
vern
gern
ehemalige
##ielten
möchten
grenze
such
##omin
##wiegend
kommenden
kirch
dreh
runde
##pert
stet
offenbar
##europ
gewonnen
var
unten
ken
werke
wehr
länge
##denken
www
daraufhin
binnen
##bas
page
live
beteiligt
##gebäude
##osoph
dachte
lab
mont
##strecke
1987
städte
##65
erde
##titel
##4/
##alb
##mens
beam
öl
diskuss
##dl
luxem
##gelassen
grünen
##famil
break
meinung
##leg
soziale
##wander
##ther
##ces
##flächen
genannten
##union
chance
##fuhr
alexander
überein
unmittelbar
armee
düssel
##dingt
sied
verfügt
##blatt
##kul
##ießen
##griffe
straf
angenommen
##back
temperatur
flor
wettbewerb
satz
##41
leitung
##lehr
1985
##ua
##star
jer
verbrei
geheim
kab
dpa
geschaffen
##irks
##oder
##eisen
stad
gri
transport
##ischem
bereichen
##hst
auswahl
zahlreichen
down
##gegeben
ziele
##ye
berat
menge
mär
##hungs
fahrzeug
anton
außerhalb
##99
##tierten
design
england
##2;
verstehen
unge
beschäftigung
##val
##mittelt
1986
##haf
##ament
ap
jüd
reicht
##ckte
##ios
fernseh
##ährt
bach
anschluss
##fc
verpflich
richter
##ministerium
##bis
bemü
entstehen
schweden
##ühm
0.
fenster
interessen
verhältnis
relativ
leistungen
##ones
autob
##ics
quad
##angeb
theor
chef
amerikan
rand
stol
##geschäft
verbesserung
##able
##alismus
ausgestat
freunde
pfer
##wohnern
##wärts
zeigte
##inden
urteil
##angt
##dass
intens
##heiratet
gefahr
##3/
dokument
fraktion
dollar
##ep
##ändischen
geplant
##ancen
##iziert
##sem
mehrheit
umfasst
##okal
rock
kö
sprachen
verbraucher
auswirkungen
##dam
nachfolger
nu
##ots
##its
auseinander
ve
##don
leipzig
zuerst
betreffen
##endete
eisenbahn
erwachsen
##sex
tom
##asil
aufent
ähnlich
##etzung
##ektor
##kö
##ng
daniel
finn
##3-
weder
zweck
welcher
1950
andreas
##dor
##irm
##leistung
##erin
##aden
wus
behin
französische
domin
vermutlich
näher
britischen
##ierende
durchführung
##war
bauern
32
##post
##schte
beschrän
endlich
ven
allgemeine
##zur
fanden
##ildet
back
erwähnt
##bliothe
unbek
##way
weib
zeichen
##zunehmen
##tifiz
##rab
##zel
##iter
##72
zeiten
schä
erkennen
##mat
##häuser
ausstellung
##kretär
sö
##britann
regelmäßig
projekte
metall
philipp
umst
öffentliche
kro
ann
##technik
gezeigt
kost
geschrieben
brief
stammen
karte
digit
verantwortlich
langsam
königs
##ime
fro
schwester
(3)
nik
rett
eröffnet
himmel
##zo
vorsitzender
fisch
##fu
pre
verg
zugleich
nachhal
tisch
sä
dritt
abgeschlossen
stammt
beant
##hren
gehe
müsse
krankenhaus
entschuld
##äst
notwendig
##sichtig
berücksich
chor
##wr
blü
studium
prü
##istisch
##="
##ruf
##aters
kollegen
beginnen
hielt
##muse
entste
immobilien
hir
tanz
##zern
sachsen
val
griech
las
übernommen
##tv
ausschließlich
stunde
bezeichnung
präsidenten
aktualisiert
ri
##dienste
sun
##hoch
count
##igungen
league
il
denke
##fried
entlang
sn
bla
bade
wollten
##44
##jähriger
##rhein
anderes
##:15
##beck
uner
station
sech
vorder
müller
verur
##fonds
##ose
##plätze
rennen
4,
##ünfte
hannover
##forschung
patienten
fällt
ausgaben
##bundes
radio
nahr
ddr
##pon
aktuell
##alle
##westen
höchst
75
frühen
fortsch
diesel
##bungen
besuchte
##wechs
baden
frag
##eidet
##auftrag
denkmal
##lecht
##windigkeit
##selben
##entwicklung
griechenland
größere
##mär
##31
schi
solchen
zerstör
(„
werte
##republik
halt
einfuhr
technik
material
besitzt
##region
registr
##rick
abst
ungl
legen
ermöglicht
william
erforderlich
technische
fuhr
##2018
bett
grenzen
weiterer
##aka
steu
dipl
##/2016
##gelöst
##zahlen
urs
##dpa
neg
verkauft
mut
##organisation
##städ
400
##mlich
##achtung
##gewöhn
##achung
breakfast
##alition
fund
türkei
##iers
betrieben
fäh
anp
##spor
##verständ
stefan
getroffen
brun
##ifor
##onom
##ida
wirst
wall
##siehe
tabelle
minute
schick
##kord
##weder
##immobil
##schu
spaß
leiden
phys
##otte
maler
##räume
wiederum
show
##tain
##32
jack
selben
iden
dürfte
bildet
verlag
musst
##gelbe
##kohol
##volle
gesicht
han
##reff
verlänger
##frastruktur
gatt
begrü
1984
##sage
gegner
slow
versicher
erfahrung
hintergrund
denk
kapital
##ness
##kultur
##besch
##pfen
zufrieden
##una
(6
##liegenden
beschäftigt
65
adr
fahrer
erkennt
##ordnet
55
##hilfen
##maschinen
34
##stätte
bat
publikum
##ee
##ular
##hop
entspricht
##:10
deinen
pflege
sänger
unterwegs
##ena
##iforn
zivil
arbeiter
standort
älte
##pfl
haushalt
belgien
zür
komment
##kau
zurückge
##ience
südlich
wenigen
wiener
großbritann
proje
durchschnitt
ärz
##tl
##förm
mac
##iveau
##8-
reag
##iat
##regel
##tliche
produktions
luxemburg
##var
##cup
lieber
wunsch
sogenannten
##/08
##jahres
bewegung
##onstr
##ny
beschwer
##iets
##nl
praxis
zufolge
carl
saint
##aille
bewusst
##7/
laufe
that
agen
##ynam
##rifft
##sprogramm
##igar
##anzler
sar
wid
##verkehrs
##mut
85
##splan
()
##ux
##zin
##ckey
mikro
brasil
ausgezeichnet
halle
daraus
##ses
##1⁄
bunde
##peten
##ließung
berühm
##dar
publ
wären
stimmt
parall
##möglichkeiten
freiwill
angesichts
##künd
spitzen
##stattung
kaffe
hauptsächlich
##agd
schuld
entschieden
flie
##liste
drogen
angriff
großes
hauptstadt
gefallen
technologie
champ
verständ
scho
last
##gänge
bedro
##versammlung
regeln
##temberg
syr
##abrik
rud
breite
kapitel
##univers
##leitung
##schi
##beg
rechten
gewerk
lös
##/10
##vn
sant
entwickelte
herstellung
stellungnahme
frieden
richard
##ction
punkten
gespielt
##ema
englisch
##ura
stets
begonnen
##2015
ç
##sm
##kre
schlüssel
##“)
aktuellen
##emark
##cial
##üssen
##yd
hingegen
jährlich
##lichkeiten
1983
##emente
##stru
ändern
niedr
agrar
quadrat
##ttemberg
konfl
gehalten
##bek
verdamm
##dient
##http
schlacht
konstru
##orgt
vollständig
bron
##abkommen
umsetzung
endgül
gegensatz
##okoll
##losigkeit
wählen
studenten
nördlich
##bra
##tierung
veröffentlichte
colle
chines
schaden
konzert
##2010
##anche
anmel
stei
##änglich
olympischen
ausdruck
lou
##ban
anfrage
##vr
entweder
1979
##außen
zit
aktivitäten
##&#22
konzept
##zung
##ösen
##heimer
klassen
historischen
komplett
reichs
wieso
gingen
philosoph
leider
beschlossen
wachsen
##messen
your
brem
##reiber
erfahrungen
##möglichen
##rägen
##ögen
##text
##amarillas
##07.
##schulen
##äh
still
bühne
##geschoss
##6/
##ney
##ville
##url
off
revolution
##legten
kompon
wolfgang
poln
##ally
kategorie
##tement
##1⁄4
engag
franc
parteien
steigen
sitzung
wirkung
##schloss
zü
linken
dres
##fahrens
##kal
büro
##lager
##fred
##ove
geprä
##stechn
entsprechenden
##kirchen
(199
##cm
bir
##ktiven
öffentlichkeit
truppen
erlaubt
schen
##aucht
besonderen
technolog
entwickeln
##08.
ferner
einrichtungen
##hauses
zen
##iment
herzen
weiteres
erwarten
metern
vorl
1982
fotos
güter
##bew
är
gründete
küche
reisen
begrenz
##app
##ziel
gewicht
1000
tritt
##bc
1981
verheiratet
##69
##gewicht
##ziehung
##zeugung
blau
world
##dt
miteinander
##jenigen
vergangenheit
soldaten
##anischen
1975
gefangen
papier
##gener
##elten
sum
##drück
jahrzehn
toll
##irol
einschließlich
veranstaltung
einkommen
warte
einrichtung
nud
##sprecher
##schafft
haft
##partner
##derten
bier
##ssystem
orien
##/12
##dir
##dp
gesetzt
düsseldorf
##itar
##klärung
div
##meer
abschnitt
holl
##fragen
ungefähr
##projekt
##din
##gh
bücher
sprecher
getö
bischof
extrem
##ffizien
##oo
windows
finale
##eicher
##produktion
##sellschaften
karten
äg
##blei
strand
##holz
gespräch
kapit
ausbau
usw
##ikations
high
##insel
##rüst
behandlung
alkohol
##vent
##führten
##werks
legte
##law
##arl
##mag
verpflicht
habt
##station
##abt
##grenz
dist
##sw
früheren
erinnert
klaus
cas
##37
verurs
kontin
##eichen
##sprü
##ales
&#
mission
portugal
##klass
stellvertreten
##09.
has
##sätze
ausgeb
##nee
fahrzeuge
ersetzt
direktor
ausnahme
gesche
##ässer
##"),
rem
##stoß
##oß
stieg
weißen
##sektor
musikal
großbritannien
5,
##ungsant
##euten
spezif
arg
schnit
bezirks
wege
verp
parallel
##partment
mas
turm
beför
sur
##unn
##sagen
europas
##rochen
erklärung
trocken
koch
amerikanischen
beschrieben
##rufe
##angs
##/03
erläu
"(
##gg
##10;
##ötz
ndu
kurs
##ritts
schmid
##deu
untersuchung
##05.
udn
gelände
##rats
##ändler
##:20
privaten
wachstum
heira
##plo
est
roten
1978
ejf
2008,
verantwortung
ziemlich
kont
##auert
##hü
abhäng
breit
##64
##bay
alters
bestätigt
##zähl
downlo
##ängnis
finanzierung
grad
block
roll
##:45
nationale
trin
merkel
nennen
farb
loc
##anen
anspruch
lim
net
haut
nür
zurückzu
lebensmittel
ill
##hören
zuständig
egal
brüssel
open
##treten
##uelle
##fir
##suchen
##kommission
ernannt
rec
kammer
betrug
änderungen
##sequ
möglicherweise
##akt
dnu
russischen
sektor
##aner
##7-
tw
##01.
aufnahme
damaligen
##zif
verhindern
säm
studie
quer
bestimmungen
empfehl
mittelalter
komplex
##otos
bekam
##freund
schlecht
demonstr
zuschauer
##echnet
veranstaltungen
##aud
joseph
##holen
befand
##essern
##pag
trag
##ric
##service
##schaff
##liefert
stimme
schöne
halte
##gem
##oe
##ühren
##gerufen
datum
hersteller
##verhält
erschienen
ausgew
out
##bast
##uell
wochenende
größeren
strei
##mod
hun
##änen
bekomm
trifft
ausführ
standen
ress
##ox
##ford
künd
##cebook
ausland
stadtteil
##gefü
##stunden
##zone
##amb
daneben
cro
otto
läng
##ory
bisschen
1972
2018,
konferenz
guter
aktuelle
ukra
dänemark
##ymnasium
ausreichen
##onn
todes
gedanken
##tif
##hington
golden
##stes
bemer
##.-
verabschie
##01
passen
ausgestattet
##ysil
zählt
tore
seid
annahme
juden
verwenden
prie
vorstand
zusätzliche
dra
##94
##lösung
##ässig
serv
bom
##:05
##konom
effe
fleisch
josef
##tell
liber
beschreibung
##ozi
gru
ortsteil
wichtiger
schätz
efs
##leger
##bezirk
##wirt
befür
##ysilvia
##ladysilvia
koalition
##chem
lust
##rn
##06.
##kore
absolvierte
120
##pat
stern
bedarf
fans
##/01
##haup
zustand
wies
james
##sicher
https
formen
wohnungen
##inform
gemeinder
seni
feu
anal
starken
county
##alz
##amin
##schö
übertragen
analyse
konkurr
kas
hell
wusste
##hafte
##bern
verwand
betrifft
laden
starke
verlor
jazz
hieß
ermöglichen
prinzip
##uck
finde
qualifiz
##aktiv
erstes
##8;
##itten
##schm
##weite
mehrfach
disku
traum
letzt
##oh
original
italienischen
tabellen
autobahn
dec
om
initiative
übernehmen
entdeckt
islam
bundesliga
sekunden
##abteilung
sehe
vari
##jahren
diver
hinblick
rau
flex
kredit
kaufen
chancen
schien
nahmen
##gb
eb
##edia
elektro
arbeitgeber
##national
vertrags
1976
##maschine
grundsätz
baby
gutes
tonnen
erzeugnisse
##pap
frühjahr
gleiche
münster
autos
private
investition
krimin
##präsent
##orte
verfügbar
##lleg
miet
##auff
seitdem
##jdi
eingeführt
benannt
##usion
anna
##ain
##66
##fiel
management
harmon
wesentlichen
##dre
spezial
1974
autom
dienen
fischerei
##het
walter
grundstück
cd
lad
##38
##:11
##forderung
##genden
gestern
flächen
secon
##baum
prüfung
##252;
einwohnern
begeister
anlagen
çá
##aller
rücken
lob
bezirk
##isierte
##kön
vorzu
gesprä
gefühl
ansicht
abteilung
mord
erscheint
lan
##geord
teu
irland
##waren
jub
ord
investitionen
##ibt
##orien
mechan
##pm
##stad
sucht
##nern
späteren
##versorgung
##club
gerichtshof
leisten
##mater
link
##museum
##nummer
##eur
behandelt
zieht
##lehen
kühl
herum
hochschule
1977
##hnte
bekl
milch
plötz
stör
##deutschland
##ando
hinsichtlich
##sprech
num
##","
geringer
angegeben
gött
teilnahme
pot
überall
grand
##55
##achs
künftig
sonne
av
upd
getötet
##etr
poten
lied
##kurs
##enter
positiv
sterben
george
roh
senden
##eitungen
##47
mand
1973
wichtigen
luxus
zürich
engagement
attra
##pos
wirtschaftliche
##:01
##weist
unabhängig
arzt
profession
schmer
entscheidungen
verzeich
##ameister
frühstück
##bett
##derungen
freuen
migr
##wett
hermann
##grenze
eingerichtet
erzielte
komme
##legte
##mitglieder
kurze
manche
##kas
eingesch
##xen
##würd
##bul
unterricht
##9/
richtige
##hofs
bekannten
##fur
cra
ah
##ibel
##äumen
renn
##lligen
##stellungs
##san
neubau
##images
##itsch
ausgabe
##bezogen
vorschriften
##chner
dient
fas
##apie
jean
farben
anh
##ätigkeit
##6-
urk
##umenten
bestätig
kehrte
##ml
bri
ring
view
umge
kostenlos
reichen
anforderungen
rettungs
##datei
##äfte
nett
schwed
##ziplin
song
##tau
##zeitung
bremen
beeinfl
weist
##ächs
kass
mache
stiftung
2007,
latein
##karte
wahrheit
##tal
kos
ersatz
##imen
##:04
quellen
besuchen
washington
vertrauen
täglich
begeg
##eting
##cd
regul
##strich
##sekretär
beteiligten
thr
weihnachts
veränderungen
##top
##funk
kür
ergeben
fran
sitzen
##ümer
##03.
##euert
1920
zerstört
falsch
##:19
profit
##messer
expl
##bewegung
ök
symbol
ausbildungs
jak
nomin
kul
##sieg
##zum
nei
entsprechende
mitteilung
##otto
##itäts
##nberg
musiker
##schafter
ruf
way
##teilte
geschehen
##örter
vogel
hergestellt
##unsten
##veranst
250
dick
##ssen
##:12
##anien
verbessern
##wan
offiziell
sr
möglichst
##open
ner
vize
##kreuz
ideen
justiz
sogenannte
##endes
kanton
##tigte
integration
##ls
andererseits
##deln
##:17
hit
misch
ägyp
fehlen
spiegel
umsatz
vorhaben
brücke
betont
villa
diente
freiheit
teams
farbe
weitgehend
##kopf
wirksam
gefahren
leon
##meisterschaften
mol
##üne
##umb
gelegenheit
ret
sage
arab
##ätter
ram
##ican
##nitz
beschluss
##skon
##lag
belg
##ih
fri
höchsten
1930
+49
webs
herrschaft
hon
rumän
##versicherung
protest
braun
10,
##züge
motiv
zählen
##:02
##:03
##rot
##wel
##bliothek
zweifel
stür
schwierig
##ky
##ria
hi
orte
bekommt
zweiter
oct
spitze
##tigten
harr
anwesen
gefä
betroffenen
##iller
##brauch
##bahnhof
how
messe
infrastruktur
ausschuß
jugendlichen
##universität
durchaus
pen
mc
wed
galt
##rate
##sphäre
##rom
##dels
traf
erleich
united
##wissenschaften
##2016
##innern
fak
1968
bul
dunkel
europe
##iguren
##gebiete
moderne
gebäu
##reffend
instrument
##anke
garan
##:21
echt
täter
gesprochen
geschäftsführer
##hf
geschen
##led
##ieur
##96
grab
##arn
##wirken
##cia
##vd
einzelne
refer
##isseur
##andenburg
rückkehr
terror
mod
##ode
##forum
brenn
experten
schatz
##hes
mond
sus
organisationen
##tien
38
##scheid
##grenzen
##isst
asyl
kommunikation
##ändische
##anda
bonn
##ckel
konzer
benutzt
roy
willkommen
opp
fordert
vermögen
angelegen
ausschusses
gering
sachen
##vollen
##:06
##hagen
##:14
##staats
37
##ÿÿ
überprü
##hofer
vierten
##:07
act
##amerikanischen
nic
##irn
kämpfen
##ón
##").
##systeme
##zieren
dün
##deutsche
##leistungs
##brei
##agte
facebook
##pal
aspe
beweg
exp
##04.
ye
##ählten
bedürf
##ädag
##–18
##delt
steuern
beur
csu
rosen
fördern
erklären
##institut
line
##wohnung
##&#252;
hc
eure
##erien
##östlich
eindruck
##steiger
##:16
##gert
##nor
prüf
lief
##:13
schnitt
herzog
##lau
##wal
##ehrt
##amerika
massen
albert
##/-/-
berichtete
beteiligung
ritter
6,
geöff
##atischen
landschaft
##eitern
jesus
##prüfung
##kontro
##zenz
##brücke
freude
treten
ewg
##/?
vertrau
##col
eingestellt
verpflichtet
schreibt
staffel
##bald
wom
##ado
##arbeits
ss
tourismus
kä
##artikel
##ähler
wechs
##familie
fün
dé
##&#228;
vic
##ürgen
1933
studio
verlauf
nachge
nachfrage
schriftsteller
preuß
##inar
zweimal
versand
##nicht
##isen
##ax
##fällen
##zellen
##hlung
##artige
##42
diesmal
genießen
sodass
##alerie
##arts
##bauer
erinnern
event
##kmale
##finanz
##klus
##krit
diskussion
##äusern
hilfs
##ourcen
##falen
mittels
##bm
lieb
vollen
##haften
##üch
##utzung
##felder
award
##ämpfung
##karten
##:40
geeignet
##:23
hall
falle
##spir
fla
anzeige
##namen
##uellen
multi
##management
zucker
brauche
##:08
kaffee
##hias
gerät
1971
schlä
behaup
##öder
schwierigkeiten
mathem
##93
##pft
bessere
##unken
##ogle
##berech
cast
##stete
unterschiedlich
##:22
sonstige
wesentlich
dresden
##indet
bio
gül
cre
beamten
vorschläge
deswegen
##neter
##02.
##fess
##iode
##car
##mil
##ütte
##blog
optim
##achter
aktien
sammlung
##spekt
##machen
dynam
bereiche
dialog
hessen
bezü
##äume
##:09
hard
anb
##dungen
##deutschen
##:50
##eir
schneller
nachw
##osen
##einheit
(4)
##wood
gebiete
handeln
ries
##-10
##vide
##mes
press
gez
afd
regelung
öffnen
##:18
kri
sper
##cal
tatsache
##österreich
beziehung
minder
##ziger
##yle
hom
jugendliche
##hörigen
bör
##höhe
sebast
forst
westlich
schließen
jac
apartment
reihen
##richter
engel
##ichter
##pper
##isa
##hotel
hierbei
belast
verstanden
nötig
heiratete
2010,
östlich
auftritt
rathaus
unternehmer
priester
##bit
protokoll
zeugen
##handels
##funktion
##einer
festival
1940
nort
##ulation
##figur
erhöht
##schei
##);
lieben
##stätten
##ace
blumen
vorsitzende
ungarn
funktioniert
mund
##emit
##falt
papst
schweren
##abi
##abeth
risiko
well
gefängnis
geräte
##stock
hoffe
##künfte
miner
erhoben
##auso
langfrist
stich
teilte
holen
kub
lohn
##ungsmittel
##/02
überwiegend
erweiterung
höhen
nennt
##ani
##konferenz
##:25
programme
##stags
##/2015
erstellt
fotograf
##gin
##werken
44
damen
##bd
##auben
##issar
befrei
gezogen
##wl
dör
1969
##arren
##pul
fehlt
planung
höchste
##modell
(00
konsequ
schwerpunkt
gewerbe
architektur
mrd
##problem
##urz
pflicht
gal
##einrichtungen
##ßte
städten
##wp
##aben
tab
akzep
##bauen
modernen
##63
fahrt
produziert
..
##ialien
bewohner
##ous
human
49
##":"
beh
bewertung
nahezu
wolle
speziell
deutschlands
600
##')
play
##ension
einzigen
##aktionen
auftreten
festgelegt
extra
häuser
##landes
##ernen
##otion
##wege
##ährung
##euung
##bilder
##brand
##vt
tru
##wahlen
schwarzen
urlaub
##gol
wü
demnach
markus
ergibt
##klar
##steurop
2015,
si
aufsicht
teils
stattfinden
folgten
turnier
verändert
##wä
gebieten
vorgeschlagen
##schef
gang
schnei
berichte
betreffend
##schlüsse
entwurf
##cb
interview
##kommt
darstellung
##orten
school
fant
angekl
vorteile
willen
genauso
festge
##:59
##ppt
akademie
##eck
##zusetzen
linien
plötzlich
##rolle
generated
##jahre
bord
günstige
bauen
sieger
##cz
##athl
hoffnung
britische
anbie
schles
bestehenden
gegenwär
tit
##ris
##:26
werner
##/2
gedacht
akte
48
herunter
persönlich
##greifen
eigenes
abgeordneten
reserv
ce
##westlich
prior
##kunst
##nehmern
trend
##dlich
ständig
einiger
##ausbildung
03.
kürz
fernsehen
kolon
kanada
jünger
2006,
##stil
wirken
konserv
betrachtet
fle
blu
##pret
zusatz
grei
##itur
durchschnit
##ammer
zenti
##isieren
tue
##quote
beschluß
##orfen
##geschrieben
##67
untersuchungen
sauer
##rel
familienname
iran
partie
party
erscheinen
lebte
phase
##qualität
zentrale
##cycl
voller
benutzer
##mäch
mail
##ichert
stolz
front
##pra
bund
freie
##vp
schaffung
##ket
##beit
##:33
armen
soweit
##kop
##istenz
##körper
machst
nationals
bol
##hebung
austral
golf
##fuß
vergeben
lokalen
##chtet
organisiert
kohle
##,00
##68
##eiteten
strecken
englischen
regionalen
eindeu
gegangen
herkunft
fon
##:24
42
##gers
staatsanwalt
##:28
college
##wettbewer
##analy
jens
inseln
veran
##stimmen
##ved
reser
##hoff
##lor
##91
statistik
##rock
1938
bayerischen
bundesrepublik
hinein
##other
##lli
zahn
erfüllt
##schiede
##,"
##geleitet
völker
fahrrad
##5/
kenne
anfangs
angesehen
vill
germany
anhand
##ologe
gründe
finanzielle
spür
erstre
##ston
##/04
##iness
scheiße
aufs
moskau
sab
hände
##mung
##ohlen
unbedingt
australien
##seits
##gerichts
##ingend
zunehmend
gün
naturschutz
genü
##ced
cat
austausch
##kammer
feiern
##)"
##reform
##amerikanischer
worte
seconds
##:35
1939
##dex
##kungen
heutige
##strom
island
ref
##dungs
kra
##ined
toten
nationen
##spiegel
##ausschusses
##ji
nt
mur
ört
##annter
##oth
hund
##attform
##bb
sebastian
##dro
##ckten
##dok
methoden
gegensei
mannschaften
anerkennung
geprägt
(10
##ois
##ädagog
##chnungs
männern
cent
legt
##vereins
ip
drittel
site
vin
##92
kart
rollen
argen
##rück
geöffnet
trug
nieders
fit
##öse
##pri
##:31
sturm
betonte
##nieder
##fraktion
reaktion
spekt
##:29
##wes
river
##äck
download
nn
erfolgen
niederlande
kompeten
##izei
töten
admin
fass
repar
pak
##terie
hoher
##:34
training
verfügen
bewe
##ouver
griff
möglichen
##lers
if
geför
vertrieb
schwere
##azin
##atische
##ocken
wandel
rt
black
sorg
beschäd
übersch
pläne
##ora
##motor
nachricht
länd
wag
43
träger
umgeben
wichtigste
##án
##denk
##dauer
intensiv
##führte
eurostat
##üben
##bacher
meeres
mindest
lösungen
verlei
orgel
klicken
##ween
schre
freizeit
##weiten
finanziellen
antworten
##ruhe
persönlichen
niemals
strategie
##sprung
mitgliedern
zugriffe
##version
konzern
berücksichtigt
varian
ele
##strate
vorteil
kleines
##ards
deiner
staatlichen
plus
sed
hundert
##stuhl
1.3.
##stär
##ith
##/09
pau
##empl
erweitert
jungs
##cus
vorbereitung
##geräte
##ams
fjo
eingeb
grundsätzlich
zugunsten
##itor
bisherigen
höhere
spielzeit
##bene
##ämpf
south
rechnung
mem
##:56
##ernt
##new
gelegt
wünschen
##&#10;
##gy
aufstieg
##xi
##ünden
##komp
##atisch
ti
draußen
sad
systems
##brü
##mack
##behörde
hem
##württemberg
1944
##ächer
regie
atom
startseite
feder
institution
##istin
##verteid
mögliche
##/07/16
bewegen
##:54
infolge
hilft
##wirkung
##:44
##engl
##nel
flucht
2009,
##ctor
breiten
teufel
effizien
friedhof
leer
##nü
gehörten
2005,
##anzer
benach
tarif
##täu
##ulen
##heben
wiederauf
bedien
##lt
ruhig
hinweise
premier
aufenthalt
##:27
bulgar
südlichen
##kommun
##:42
sorge
rh
##97
präsentiert
##krieg
geträn
1967
over
kurzen
ausfuhr
##tragung
##fertigt
7,
dol
charles
##istan
eingang
beschäftigungs
beschäftigten
##:55
fälle
fi
hört
berufen
aussicht
bun
führten
##nur
##sdorf
beschwerde
verfassungs
beiträge
##ischt
statist
kongress
verlieren
kanad
afr
info
##otten
##gä
geschlecht
##kep
sobald
##wies
zeitschrift
##könig
##sberg
ausgleich
##otoren
etabl
abwei
##61
jos
teilnehmen
##astrop
##ftig
eröffnung
keller
artikels
##hler
41
##ey
erschein
##las
##viertel
banken
versuchte
up
christoph
##grad
bezüglich
##:39
deinem
eck
##bogen
kie
##:41
##ami
abstimmung
indien
dargestellt
jene
bevölkerungs
verläuft
jürgen
more
##sträger
festgestellt
##aa
wuchs
unterkunft
meint
master
gep
interessiert
glie
verringer
meisterschaft
barcel
erzb
##spf
##/0/
kooperation
ursprung
##:43
korre
offenen
verboten
##nh
##instr
stattdessen
zuk
jon
##ütze
empfohlen
##feuer
hinweis
aufgestellt
historische
##:36
ns
erfr
runter
diag
##pi
##ony
mauer
verurteilt
##fang
verliehen
##ässlich
##rüstung
besei
##betr
##äufe
##uther
pc
##van
##ords
800
1964
ausgang
##ption
##viel
generation
ehemaliger
vorgehen
erneuer
widerstand
##maßen
##jor
retten
jakob
mäch
##fh
tha
##98
##mess
##uplo
lande
##:32
katalog
##stoffen
alleine
~
erfüllen
erober
salzburg
##stehenden
institutionen
−
##metho
##ender
lot
##rand
poly
news
berichter
vorbe
westlichen
##bauten
details
formul
mittelmeer
thür
süda
vaters
webseite
überzeugt
##cess
street
##:52
##ros
##rum
##weiß
center
pfarrer
solcher
##eins
belegte
##owski
##rd
afrika
##500
##agentur
##stab
benötigt
##:57
(7
nürnberg
##produkte
##%)
hängt
(18
aufmerksamkeit
schlafzimmer
debatte
sämtliche
##lim
deleg
erleben
blieben
##ship
##schwer
konkurrenz
##mmer
1946
louis
schönen
angemessen
##schlagen
##ree
##ela
group
erhältlich
##:51
schil
##arzt
überleben
mexiko
##asp
##pool
gir
##zn
##jt
##bart
##dach
abi
##ente
-20
anhang
verwirk
kiel
bob
##adr
prag
schiffe
##ussen
höheren
##:58
besie
##:48
##zugs
##fällig
bart
krei
vorgelegt
#1
oberen
##ffekt
datei
##lass
##essel
promov
arbeitsmarkt
##heil
etc
##git
##lat
verließ
##inne
##faßt
hoffen
##ipe
lösen
total
genehmigung
##:38
geblieben
##süd
##such
##ktes
##fangen
grat
wirkt
##preise
##rig
160
vorgänger
einerseits
##:37
richtigen
##info
brandenburg
auffassung
schnee
##prin
rekord
##aussch
autoren
##endar
mitge
one
kaliforn
130
machten
##leun
kle
älteren
house
norwegen
##spunkt
chron
##:46
ts
##auchs
einzigar
##aufrufe
##:53
aussage
regisseur
##publ
##oben
leitete
##ref
##ologen
klub
##gau
auge
##alem
##eus
startete
feiert
##indungen
##cer
innenstadt
bm
##rh
voraussetzungen
46
>>
archiv
zut
##quar
##gliedert
quart
geburtstag
1965
restaurants
ly
verkaufen
entsteht
##gebir
##boden
jedenfalls
freundin
untersucht
ess
##rennen
##content
voe
##:49
0.0
##iertes
##äub
wirkte
ausgetragen
##lings
gran
hamburger
hung
##ack
##geht
wach
##mension
betriebe
##män
ski
pflanz
##kämp
##äischen
##tour
aktionen
single
##rates
versuche
interpret
1966
flüchtlinge
##ener
##page
dj
gefragt
##spruchs
##kle
##tiere
frucht
##sky
##fé
unseres
##schreiten
beihilfen
arbeitsplatz
automobil
netzwerk
##partement
nachmittag
schmal
lautet
##iki
versehen
heer
lind
##deutsch
million
##räumen
##baus
##zell
erzähl
##hme
mun
##immobili
bisch
subst
but
atmo
##mitte
schmidt
spanischen
funktionen
ingen
##antin
starten
tags
gehabt
8,
vermeiden
joined
sg
##reihe
sorgt
karls
number
##verlag
hilf
##put
besitzen
##noten
have
eh
##kinder
jagd
systeme
begleitet
flügel
##vertr
##steigen
140
##arbeitern
##tran
##sor
brüder
komfort
veränderung
boot
mittleren
bos
gewissen
seiteaufrufe
zusammenge
münchner
demokratie
##hten
##flügel
ee
##fähig
geschwindigkeit
ließen
##mün
##zesse
zukünf
##teilungen
francis
staatliche
verstehe
(201
verschiedener
2011,
##öch
##--
aufgebaut
stoff
beendet
##stoßen
hauses
erzählen
selbstverständ
barcelona
verlust
music
verstärkt
##urer
tsv
optimal
verfahrens
##risten
##zwe
zuständigen
##:47
1961
##pass
ermittelt
##eller
##llung
gleichnam
ned
##handeln
##vater
inneren
##rein
##anner
##barer
politisch
cu
mön
madrid
regionale
koll
matthias
gearbeitet
einkauf
blatt
hervorragen
##usive
##etts
##arte
##erer
gebildet
religi
##......
eigenschaften
##bnis
obst
donald
treu
beziehungs
landtags
lebten
ec
##ader
nied
1963
gattung
arn
patent
ue
vorgestellt
angekünd
darm
##konstru
##tex
elemente
volle
aspekte
währungs
##rs
maschine
##img
filme
welchen
##folg
able
##deb
##hockey
glücklich
##trainer
benutzen
##pfe
##eiert
##endorf
1962
klinik
##ants
##dorfer
gelungen
95
verdammt
google
vielzahl
letztlich
ot
krankheit
fährt
längst
##bv
##dh
##jan
##sid
mitten
marken
tausende
##anteil
##well
zy
##%3
flugzeug
##sol
aussehen
##bor
argentin
katholischen
riesen
entspann
lagen
beweis
beendete
hierzu
verdien
##ppel
cir
eingeladen
##ütter
##orts
##würfe
hekt
modern
##eitungs
##digen
##pfer
##zeugnisse
##eme
##tä
##stür
##kes
fürst
##air
status
ron
zin
##sied
müssten
konzep
##qual
##start
##kamp
##furter
manager
##ota
vereine
objekte
archä
##einsatz
gib
wohnen
alp
sauber
einfache
##fahrzeuge
gewün
##bal
prüfen
klim
offensichtlich
parkplatz
##aw
big
mangel
##pun
seg
##üse
##systems
##sprozess
##glas
##älte
marke
dran
abt
##einkommen
drin
##tiven
küste
##leute
heißen
##fal
##auten
finnland
##stiftung
weisen
verbreitet
ressourcen
europäischer
1,5
strateg
kapaz
erhielten
szene
##platten
she
erheblich
gegend
betreffenden
##vir
blüten
mitgliedstaat
spenden
##album
lieder
intelligen
niederlanden
-20%
##iano
treffer
cop
adresse
diejenigen
fremden
strukturen
##stücke
stift
identifiz
ban
##achim
##bereiche
1948
selbständ
##ärm
kombination
##phase
##öss
##ätzung
erbaut
maße
##iste
rap
tätigkeiten
niederlage
##agten
ergänzt
‚
##emann
1958
selber
söhne
##hörige
küsten
nachwuchs
simon
jüngsten
niveau
illeg
##can
##phan
berichten
##endeten
besatz
##streit
##bleiben
##histor
gemeinderat
##eten
enttäu
dortmund
verständnis
kamera
##unterricht
wodurch
##umin
steigt
prote
franken
philosophie
##/2014
fok
##hofen
nutzer
sitzt
##gesellschaften
endete
##sur
pause
dram
vorne
##prozess
erkrank
##aß
serien
##baden
##gm
exempl
verh
##präsidenten
erzielt
gestorben
objekt
north
amerika
repräsent
abger
##gler
architekten
alpen
many
vorgenommen
vorjahr
innovation
##ail
solle
ähnliche
freiburg
##istent
##phone
analys
besucht
1956
##rät
arz
liebl
pier
cup
kandidaten
vorstellen
perspe
##62
american
##boot
vielmehr
01.
forderte
entwicklungen
##korb
zeug
##schaffung
##typ
##intern
kino
erhöhen
##etung
##iana
##stimmungen
meines
balkon
meinte
##graben
französisch
##initi
##mir
##rages
##immern
1952
##bilden
##ichtung
##werten
anschließen
physik
##angebot
praktisch
##ographie
bam
twitter
coun
ansatz
##deckt
fliegen
stö
##pn
rent
##/01/17
1949
gebur
##orie
##skr
hunde
views
bestandteil
arbeitslosen
##gemeinden
##iction
division
tennis
##kern
tiefe
##eise
befest
befehl
führer
##brig
schein
##vs
##kolle
schlimm
worten
beraten
erworben
überrasch
##ij
verstorben
52
inf
##ouverne
##ßert
option
formel
besitzer
##straßen
##sprachen
späte
siehst
dienste
##zeichnungen
anne
alternative
äußerst
wasch
nannte
##sender
bezahlen
##/3
gebiets
gü
ads
2020
elis
schauen
##einheiten
andr
##mas
gelangen
popul
##/5
54
##ugh
transpor
zentimeter
location
via
vieler
cy
##laufen
belegt
##artig
##stufe
##frü
polizisten
##uste
übrigens
labor
##attet
plätze
richtlinien
perfekt
##kehrt
unterschiede
##förderung
##eland
##freiheit
##weisung
bilanz
1919
fühlen
commun
schlug
business
##bürgermeister
eber
immerhin
gefällt
gestaltung
##ato
durchge
positive
##ln
großteil
1943
##fm
indi
##gesetzten
put
##strafe
spezielle
russische
##ray
schauspiel
zustimmung
##ault
sofern
gekauft
##ikationen
fritz
box
platten
dauern
getragen
fair
kleinere
frühere
##wh
use
##alender
##sä
gaben
nördlichen
##rak
brasilien
baut
smart
italienische
lokal
##aufnahme
##anzig
doktor
klavier
bä
ech
pul
##arischen
##fehlen
ehefrau
vorbild
traditionellen
botschaft
##grammen
relev
eigener
##paar
kölner
##gerät
laufenden
##ligisten
##best
##ird
##box
forum
renov
sha
ältere
bran
maximal
umben
##fung
hinten
##ätzt
##ging
ausgehen
erwart
wechseln
##pages
##arz
##ring
marine
##reicher
##urnier
jud
ungewöhn
##material
##................
rückt
rü
##fabrik
posten
süß
transfer
getrennt
mittelpunkt
##aue
spur
##ido
##archiv
##osa
ras
##nord
kim
##jh
##licherweise
##wandel
horst
##/11
51
here
##fas
glaubt
scheiter
wappen
maps
weshalb
##rufen
##born
##sprüche
##stimmt
trinken
##brechen
wahlen
sens
ast
warst
ident
##ille
1941
jubil
darlehen
##schten
1942
##entlich
kontinu
rote
verfolgt
flach
geplanten
##ids
##eim
##ridge
##leisten
##herren
""
grä
##beginn
angebote
nav
1959
##rucken
##spartner
notwendigkeit
##wicklung
##usa
slowak
france
bestimmter
##mäßige
oster
##tend
getrei
##siden
##ettet
eich
2012,
##öm
between
##westfalen
ärzte
differ
kel
alli
schließt
einnahmen
##medaille
frisch
gerecht
gesper
##ktivität
##54
senioren
terrasse
##ili
##aku
1957
machine
##gast
##worfen
##king
präsent
opposition
##ez
haltung
eig
beziehungsweise
##uploads
##ozial
versicherungs
hektar
abhängig
beratung
pferde
##cur
##saison
bildete
##ghan
ll
sig
##ska
##/03/17
minim
##mie
kriterien
##ione
##esa
angeles
bundesregierung
##prom
beschreibt
##riz
##spolit
müll
##züg
grafen
##herz
##weiht
##mord
nordrhein
unterscheiden
element
krieges
ufer
vereinbarung
hl
stimmung
spitz
##ices
110
##erd
museums
methode
##ves
##onenten
##statter
##oker
verteilt
##><
kapelle
schal
##arkt
zentralen
##gewer
verdient
ausdrück
wohnungs
dll
rudolf
resp
##berlin
fremd
##onie
kenntnis
endet
##verkauf
finger
aufgeführt
170
##56
##tn
übert
##rahmen
informiert
hä
2013,
##ual
mic
bedeutend
verschl
rin
landtag
geschie
##lehnt
##ärten
##daktion
carol
brauch
tol
##mittlung
krist
schreib
que
tsch
gesetzes
##polizei
beziehen
persönliche
##eucht
##ometern
##mäßigen
satell
##bund
freut
enor
ral
##unen
offiziellen
##bestand
einheiten
##wortet
64
(')
##anstalt
##abgeord
##fleisch
##teuer
architekt
steiger
1918
##ged
ethn
saal
##nitten
gefördert
ursprünglichen
##ati
##welle
umgang
1953
jüdischen
plast
9,
vielfäl
beschleun
##stedt
spir
##zeuger
römischen
##vas
##eiß
sterne
##mmern
kümmer
vorläuf
##zentren
##/4
sit
schuss
##cor
rasch
gipfel
einstellung
compan
##okraten
erwarb
betrag
victor
##gebieten
mengen
neum
##gebnisse
##tim
solange
##wil
linke
bip
unteren
’
derzei
##sum
##antie
##luft
##beam
47
ermittlungen
##fg
automatisch
qualifikation
##ple
##-3
friedens
pic
##ights
sowjetunion
##organisationen
verbreitung
##riss
entfernung
passag
anpassung
##ahme
heidel
bestimmung
orten
angelegt
cle
##isierten
texte
aktiven
rats
mie
1947
##direktor
##liegt
beispiele
##schön
king
geschlagen
sound
##-200
(5)
##ichtete
##hab
##bre
##53
zugelassen
darstellen
register
ukraine
gestaltet
chemie
##etzten
unterrich
ry
##institu
debüt
drauf
tick
buchen
##reiter
##schwei
nachfol
entschließung
verbindungen
umgesetzt
##cent
gelb
##play
übersetzung
technologien
lig
##manns
pas
messer
zö
##59
übernahme
##besitz
##trans
wlan
wu
##händler
##aux
##übt
ums
passt
festlegung
edu
eib
abstand
schwarze
müsste
12,
craw
flüss
direkte
rab
bernhard
##partei
langer
gerhard
##beteil
abitur
brutt
kalifornien
1954
1955
lt
##zierte
modernis
textil
barbar
wissenschaftler
##ständigkeit
##kol
ng
entschied
##beu
##ierend
edel
hr
##ierer
##portal
##gende
geschw
21,
forscher
##pack
past
##andelt
##deck
zuverl
informieren
##horn
landrat
änderungsant
hochschul
##mn
führungs
sieh
schluß
##gelände
besetzt
gastgeber
##kla
kanzler
##position
tob
umstritten
schlägt
verbrauch
##hört
kult
kräfte
##/08/16
eintritt
##tist
##büro
emil
gesucht
figur
##etik
griechischen
##kil
vorstellung
vorstands
klang
gleicher
15,
sou
operation
erfolge
##elen
hob
zugänglich
az
stadion
##ques
klassischen
##kshop
##dollar
é
##schirm
diplom
versp
benachbar
##.2
kommentare
beschäftigte
##annen
its
fünften
siedlung
krise
53
##onien
kommunal
##quenz
geschickt
##äden
1934
saar
##artigen
##ram
##ester
##demokrat
##sinn
road
tank
frist
##row
wärme
cha
zauber
ox
##korea
##gestaltung
§
jener
##cklen
##sive
##hnten
fürs
offizielle
henry
march
##menge
##konzern
##-2
geschafft
##tial
free
amerikanische
sho
gramm
##idar
##cil
entw
anstieg
ell
vergrö
##lebt
seele
schwimm
##becken
portugies
##chron
##schn
marie
##lö
nick
wohin
##bahnen
##cas
digital
horn
preisen
anstr
lar
sorgte
##stö
##gno
bezieht
hängen
klingt
gegenstand
##,...
ordent
##igem
davor
konflikt
errichtung
##verbandes
##denz
jemanden
appar
##waff
altstadt
¡
syrien
##kriegs
experimen
regierungen
berge
abwehr
orchester
versorgung
##inas
hill
kard
##älter
##größe
kron
geschäfte
##wein
##real
bitten
wartet
gründer
##cyclop
eigentümer
erforderlichen
updated
schneider
##samen
##orgungs
##nachrichten
##freie
gewisse
->
gewöhn
##/2013
atmosphäre
power
ökonom
bewahr
hierfür
obje
verbessert
produkten
beherr
royal
übergang
besonderes
1936
mid
##cdu
potsd
rass
kommer
1900
gesperrt
##zenten
kontra
berücksichtig
verlegt
stellten
schlagen
unterhalb
achten
programms
##pend
##person
##aker
abgesch
sanierung
motto
vit
##vorsitzender
bezeichnete
brut
leichter
dm
saudi
figuren
##57
##ér
##bö
bloß
amster
muster
alfred
vorüber
##bücher
##atom
media
inspir
fix
südwesten
##äuse
##lassung
##ausstellung
isol
tirol
##jugend
verfassung
##spitze
disziplin
funktionieren
ausgeschlossen
##sidentschaft
transpar
##phen
##hängen
##frank
nimm
##media
##anzeigen
kohlen
##tung
##cts
christus
##platte
ulrich
genere
geplan
##rung
##emp
tipp
angewand
##ually
56
beinhal
##sey
##nacht
##edition
lehre
seither
dauert
##äler
weich
##klin
bühnen
gn
mör
##hd
kurzfrist
liefern
##tec
##beauftrag
niedriger
14,
angen
##zwungen
##swert
trieb
##ettel
##kette
##altete
geraten
maßnahme
##oslaw
##zene
photos
beobachten
grundlegen
##ript
##sson
##folgt
fortschritte
inklusive
green
kritisiert
geprü
verbindet
20,
nordosten
##dom
belieb
wachstums
trainings
##gemäß
##blätter
16,
heinz
vielfalt
##ips
##bien
tode
dienstleistungs
##brochen
##vorstand
erhebung
##dio
wiederhol
genossen
eishockey
entlassen
##splatz
##bungs
übernimmt
samt
territ
passieren
faktoren
späten
##max
beitragen
(20
zeitgen
durchmesser
unglaub
##dies
##euern
##behörden
nde
##lichem
##main
endgültig
##mühle
angebr
gewährt
geschichten
hyp
dringend
##hersteller
ideal
##besuch
bronze
definiert
weltkriegs
straß
gestalten
santa
welchem
##maler
11,
camping
eindeutig
ding
gelegenen
##gab
kommand
##ausgaben
marketing
##alte
normalerweise
pir
##board
unmöglich
##upfer
##organ
gegebenen
##ila
schauspielerin
##ova
##ommern
worauf
##schicht
##gegangen
##enk
##älder
anlässlich
##ori
weiße
##schrank
##lar
gemel
##eutn
mainz
##politiker
bekämpfung
joachim
touristen
städtischen
runden
handwerk
1951
stephan
spätestens
schlafen
22,
fur
singen
gross
##lechter
umfeld
neur
stärken
fürsten
##pfalz
hunder
löwen
elisabeth
schäden
##-19
abgeb
700
##kler
fan
brust
gefordert
herausforderung
##abschluss
schwanger
##istischer
jug
vorbereitet
##my
präz
aussagen
##setzte
ausreichend
##quer
leitet
niedrig
augs
gymnasium
mary
ausstattung
gespräche
woher
##sieht
##ächsischen
mini
##isl
##züglich
##zeln
bast
ahnung
rumänien
badezimmer
##schreibung
##cyclopedia
stopp
##arische
beruflichen
(8
behörde
##äb
mietwagen
##ran
nen
durfte
##vertreter
überblick
"„
staates
##ologisch
din
##spd
dne
##retern
##vision
berufliche
##morgen
##temperatur
##feier
##küste
07.
##asi
evangelischen
kurzer
älteste
##kräften
08.
beobachtet
##kandid
##waffen
gewährleisten
hüb
##analyse
profil
##uc
##vorsitzende
##hause
grüne
klage
schicken
vierte
freunden
waffe
date
hochzeit
gestiegen
département
fung
fassung
empfehlen
gusta
ehrenamt
##geblich
hochwer
chic
##druckt
anwalt
company
##halter
alarm
schlechte
##cons
bass
kör
journalisten
det
spar
geringe
liv
##uts
##low
##porte
exter
##mutter
##empf
unklar
##/12/16
##vern
##äßt
##aute
kapitän
demokratischen
erwachsenen
internationaler
1937
instrumente
english
anhänger
gemüse
##ifiz
states
##mechan
diskutiert
##mauer
auflösung
warm
impl
schleswig
akadem
schritte
arbeitsplätze
##älde
##bedarf
##ichteten
schmerz
##fenster
##unschwei
ortschaft
erinnerung
basel
##ünde
##spartei
##spräsident
##oli
null
##verd
songs
scher
gefeiert
absolut
1914
fähigkeiten
##eutr
konflik
1929
##ero
##gendes
universitäten
·
astr
schall
haar
##uz
erhöhung
##heute
ausgeführt
spielten
gebrauch
besseren
actually
##.3
##klärt
##technologie
##ordnungen
##ais
1935
direkten
kommissar
nap
##illon
eth
##pil
bäume
angekündigt
sche
##alisieren
(+
##einhalb
##amerikanische
voran
##bruck
##encyclopedia
mitarbeitern
ägypten
nad
fließt
##ärt
materialien
erläuter
-10
übereinkommen
##iell
##ografie
##100
froh
verrückt
vorrang
yo
bestehende
##eige
fdp
##zert
##ofs
##wall
definition
##bezie
nikol
##stamm
existenz
##länge
audi
weltmeister
katastrop
##front
darstellt
##sse
##lichten
geschmack
schatten
anbieter
fordern
unglück
”
##ketball
fusion
mitteln
kroat
angep
behalten
59
nehme
##schlägen
angeschlossen
polnischen
säu
##let
theorie
##unfall
##ays
erlebt
edn
verteidigung
lizenz
supp
fakult
##dest
##div
##frauen
##akteur
theoret
ert
92
kw
lam
kok
##tlichen
gitar
aachen
calendar
ereignisse
99
regensburg
pension
##sthe
kümmern
ursache
east
problemen
paläst
1928
##einträch
erlassen
verzö
kalt
04.
spuren
##quellen
forderungen
##spur
schach
chinesischen
sy
getreide
##char
weihnachten
##ässigen
##sprachigen
rechnen
weber
love
angelegenheiten
##autor
gau
cla
##51
sichern
##fahrten
osteurop
verpflichtungen
soc
berühr
##ilien
##chern
##verhältnis
abbildung
dritter
rheinland
##kunde
sammeln
ensem
ältesten
##lichung
##ols
unterzeich
##zburg
ez
rohr
angela
räume
schulden
##ürzt
##cklenburg
ig
##berat
beck
##ummern
tok
##werden
keines
##wm
beachten
##kehren
##usalem
##ypages
bauer
##witz
anzeigen
fab
bestimmen
##]=
irgendwie
hess
euer
gefährlich
##wann
##gibt
trink
witz
sda
denkt
finanziert
cam
##tür
kostet
##ée
mineral
##mont
japanischen
##zuführen
frankfurter
##anische
assozi
##quelle
##auchen
##/06
überzeugen
##ilität
premiere
plant
respekt
##02
entdecken
schreck
lokale
jahrzehnten
auflage
favor
inszen
##klassen
##kapelle
verdäch
##set
menschlichen
leser
erwerbs
##ror
##geschwindigkeit
##fahrzeug
nordwesten
##kus
##assungen
##arab
zweier
##linder
bewegt
aufgelöst
sichtbar
umbau
72
##code
detaill
bien
startet
##wid
überwachung
##klang
marien
##wettbewerb
set
natürlichen
fonds
wächst
##hä
maur
ien
diskrimin
##ündnis
anlass
2014,
##52
##cience
stren
gleichnamigen
##ausgabe
micro
##hardt
ã
quartal
##fot
##oz
pi
gebir
##skir
##unge
medik
##teln
leuten
erstreckt
##ieger
##schel
wan
leder
##undet
enter
asd
einfl
zwischenzeit
rechtss
##field
mes
offene
anger
harry
##ietung
existiert
vorliegen
höhepunkt
##skep
wayback
##gre
##block
thu
skand
october
hinge
crawled
rauch
amsterdam
verpflichtung
königin
verschwinden
##sert
melden
zusätzlichen
##orenz
##ministerin
hals
prop
stärke
englische
##wahr
vw
kabel
##ütten
athen
##ages
##fein
##rechnung
treff
plat
einschrän
##chor
66
leiten
##wachst
braunschwei
##wanderung
nachweis
##uba
##same
##wendungen
##rainer
##fv
hallen
##tri
bezahlt
absicht
##regeln
handy
##verk
##ülern
##zit
rechnungs
ausw
##ador
##digt
ansehen
heiß
gall
signal
■
gebeten
##ious
bevorzu
mama
erfor
##ulpt
ecke
##bein
##drückt
renten
schafft
appl
##gliederung
##ituationen
state
seehofer
sekund
vereinigung
format
##mr
modelle
##bab
prinz
wähler
angeblich
hub
dvd
code
glaub
dsa
verkl
##betrag
wagner
##dc
asien
nerv
##58
aufnahmen
##ão
25,
##gei
3-
befrag
handball
##pflanz
wiederher
infl
##steine
einver
wünsche
##400
lkw
##ikanische
1925
##russ
##kind
kostenlose
temperaturen
##rin
mari
##sendung
##ikas
champions
brach
dieter
bogen
##hauer
detail
südosten
sicherlich
ht
##xe
##sens
zä
##holstein
##link
##amts
##mith
diagno
##cadem
onkel
##wenden
vermie
beeinträch
aktive
verlängerung
##.1
währung
##skeptic
##firma
mike
rufen
##thm
erwachsene
interessant
verletzungen
##verbot
##yo
##steht
know
oliver
##wohnungen
##yk
erhol
gelegentlich
verlangt
brücken
european
oberfläche
religion
##pflicht
##strategie
gouverne
##kamer
##medizin
bemerken
geplante
##5-
##agne
messen
fortschritt
werbung
kmu
hinsicht
od
distanz
##übung
übersicht
aff
bemühungen
nationalsozial
##strecken
##klage
kontakte
holte
summe
augenblick
erfolgreichen
##zl
tatsäch
##mee
##ohne
gründungs
13,
grundsatz
##sphase
niedersachsen
videos
warenkorb
kürzlich
##rik
fühl
türkischen
beihilfe
kugel
olympia
฀
##iegs
haushalte
abkommens
##ammern
##austausch
##bilanz
ware
##banken
##/19
blö
realität
##iety
ebt
reu
##bereit
einfachen
basiert
begrenzt
gesang
außergewöhn
osc
ermor
##pflege
##strahlung
umweltschutz
berater
##zoll
stan
akp
kleineren
##chnungen
fahn
ministerium
##ining
##ogan
vul
rückgang
##gelegen
schild
1924
##opfer
gegründeten
##fahrts
versteht
anerkannt
nas
bezogen
kupfer
wende
autofahrer
##häusern
sender
rief
wenden
jugoslaw
##freien
##andt
##bon
decken
##ube
##down
ago
institute
##hb
erlaub
adam
pres
abgegeben
##gewerbe
dicht
inhalte
verarbeitung
##graf
##jn
preußischen
mis
zo
##ardo
rebe
kabin
dfb
##uminium
flag
gelassen
steig
##ommer
konkre
verabschiedet
saved
law
##format
genauer
katal
geburts
##elbe
##sicherheit
ablauf
een
menschenrechte
##tre
vereinten
##hg
1932
##uter
begeistert
erkenn
erstellen
##zentrums
##wd
bell
erfolgreiche
##irr
##theater
kohl
pin
##verordnung
europameister
vorsitz
hügel
meinst
##oma
anson
züge
pel
##erl
won
spaz
##eutnant
speich
hm
##nommen
führenden
##entin
##esp
stir
-10%
diplomat
reduziert
wellen
##tele
##ems
tempel
südafrika
##rollen
freier
vorgesehenen
auswär
amtszeit
##ödie
##bat
michel
ath
wohnzimmer
republ
##bergen
96
beach
rut
##fügen
echte
zogen
zwecke
##steten
##05
empfehlung
##ustr
funk
##scheidung
eingehen
western
##invest
branchen
##ßern
##stör
anwendungen
##ladung
##/18
1927
##winkel
flexib
slowen
natürliche
schwach
##seg
27,
##js
nationaler
texas
redaktion
##ebene
weite
zeigten
##-)
##kg
##ständen
helmut
östlichen
verkaufs
jesu
##alscience
geschützt
##rau
übergeben
kontinuier
genannte
ine
schieds
gemüt
rol
##verbindung
seen
vereinigte
##odor
##kurse
2,5
sparen
schar
radik
##marktes
##otyp
nominiert
1910
##vorhaben
grem
krebs
grenzüber
##grunde
kommerzie
österreichische
ortes
##akademie
drehbuch
abgesehen
gewe
##és
##skepticalscience
##ügen
werken
##tainer
##schnitte
jerusalem
stau
adolf
##sko
sul
##saal
##tar
##handlungs
films
mittlere
##äumt
speziellen
##gru
partnerschaft
dusche
subje
dokumente
monats
57
##woche
größen
##igner
aqu
vollkommen
##forts
herbert
bibliothek
##lehrer
28,
parad
##wendung
##mond
4-
anim
anspruchs
##log
kurt
händen
tus
life
unabhängigkeit
kün
##kathol
%)
##yt
##olen
##ops
verfolgen
1:0
##zustand
ansonsten
schaft
amaz
projekten
31.12.
aussprache
brig
##wenn
hot
##ental
örtlichen
##bg
export
feind
beruh
patrick
zell
aufnehmen
##count
geprüft
gerufen
##hner
lor
bernd
gewo
speicher
rä
##reif
##haftet
chemische
##thur
abb
präsidentin
befind
##/02/17
##regelung
##offiz
june
wä
mehrerer
##ichen
buchst
##igtes
sachver
wiederholt
chicago
abends
##haushalt
zuhause
irgendwann
##betriebe
klare
##üstet
initiativen
här
eintr
verändern
marc
##ftigen
##jew
magde
preußen
vorsitzenden
solidar
notwendigen
ausdrücklich
##ktieren
pfar
##arma
##stehende
feierte
verträge
##oche
good
##ativer
##decken
französischer
##zusammen
separ
leichte
benötigen
##spezif
zugrunde
zeitweise
alltag
##oci
##önt
anbieten
viz
abgelehnt
sprung
##show
##hythm
verbot
(6)
geheimnis
##inte
##rö
gemessen
arznei
beinhaltet
##center
ft
untergebracht
##innung
first
ehrlich
falsche
bemerk
##sucht
tafel
##studium
ordnungs
isbn
vorhandenen
schicksal
konver
##schne
gh
cont
##tischer
##hörigkeit
##itation
solar
kündigte
begannen
##cf
moun
gegenteil
##riffe
jacob
fell
donau
osn
zahlungs
verlängert
##lr
##turm
pur
bester
eingetragen
trei
jährliche
nunmehr
ärger
fernse
horiz
##euen
hierher
verbrechen
ran
zwang
##pdf
einheim
innere
##fußball
##oter
##6;
kore
gewinnt
umständen
##hauptstadt
##kow
##bring
franzis
##farben
bruch
schäd
verbinden
61
town
rev
##junkt
kau
gewerkschaft
einiges
##gebnis
hut
350
express
voraussetzung
sendung
verwendeten
cann
unterlagen
##atorium
hinweg
vieles
vorange
##festival
##iale
##earch
##meier
dokumen
##oko
basketball
##ère
58
teuer
tagung
##tirol
positionen
schweine
eröffnete
nd
rn
bened
##bewahr
##macher
gästen
##verbrauch
katholische
##brie
hass
indik
##angte
##enten
stellvertreter
##zahlt
ländlichen
tee
##elekt
##basis
1921
fähr
hs
##wirtschafts
##nimmt
##manager
kais
##ietes
::
##aturen
##italien
ib
##termin
fabrik
##hochschule
stärk
workshop
×
##fehler
angebracht
##änz
dn
stücke
1923
##räder
tausend
forderung
##ilian
bahnstrecke
betreiber
vel
pie
##ktiver
leidenschaft
inns
binnenmarkt
ausgesetzt
##ique
29,
##ielle
junger
meyer
werbe
bergen
##irektion
##gleichung
##arbeitete
verbringen
ohnehin
##kund
beschränkt
konsum
ents
eier
69
##not
##echtigkeit
stadtrat
traditionell
resul
felix
mannes
##streifen
nutzt
greg
handelte
identität
loch
frühe
einstimm
benz
geograph
nahrungsmittel
##monat
##studien
##verteidiger
ray
1926
konk
##weiler
wolfs
negativ
verteidigungs
nachfolge
##wser
vorwiegend
fühlt
gna
wem
09.
##gf
kader
##ahe
manuel
lasse
##örg
mitbe
satur
##icker
manchen
centr
erlauben
05.
kriegen
##stechnik
erzielen
urkund
existieren
coll
##kä
nochmals
amtsblatt
mak
ae
womit
##fers
eil
anhalten
verursacht
ausführung
hammer
##beziehungen
zugeordnet
##vereinigung
spätere
teilt
verdacht
beding
ankunft
ersta
##web
17,
barbara
viol
gelingt
kerl
##zelt
##iche
##video
##christ
gegenwart
apost
besetzung
##öz
sla
rät
weltkrieges
79
##ito
19,
##apel
63
##verhalten
meistens
café
##alisierte
vorliegenden
##branche
##isation
nütz
##öt
böse
##günst
mist
vorkommen
##ausschuß
##ktions
beider
schnelle
bestritt
getränke
##cre
88
##abrück
verhindert
##gäste
##bevölker
liebes
##besitzer
differenz
1922
##geschäfts
##2000
##sil
dri
##ople
nrw
anmeldung
geschieht
pred
##dinand
##wirkt
aluminium
ped
##alth
july
##esco
kroatien
##renten
atem
risiken
ferienwohnung
stro
hn
##cle
##marsch
verteilung
pädagog
##0000
wiesen
pool
beliebt
##fit
göttingen
##athon
bremer
lee
tunnel
##versicher
derselben
bestätigte
##kov
##kanal
überprüfen
##(1)
aktualisierung
result
berücksichtigen
holt
besaß
anwendungs
keinem
traur
##urce
fähigkeit
##konzept
wesen
empfangen
taten
letztes
charl
dortigen
stoffe
jäger
##kischen
vertrat
his
gesetze
##schießen
kulturellen
verlangen
wesentliche
kilometern
außenminister
ign
genaue
́
##profess
moral
mühl
dampf
##got
ever
zz
datenschutz
##ßig
defen
##nachmittag
##cedes
##projekte
##icherheit
188
steckt
kategorien
##/2011
##ßten
##gefunden
##räglich
##brun
frö
gedre
kurzem
##files
##lös
##zeß
##mögen
##brücken
##igkeits
enger
##issionen
läßt
##zar
heidelberg
abenteuer
##äg
sher
kell
tempo
##bereichen
bestanden
erreichten
gefolgt
medizinische
bewaff
auftakt
florian
##üre
perform
##alu
##anna
##arda
schicht
neuse
pilot
komprom
kunststoff
entwickelten
science
joe
baute
18,
fokus
had
heilige
##behandlung
pkw
panzer
präsidentschaft
pho
abbau
##asien
dürften
##einigt
residen
halbfinale
afghan
landschafts
tn
versammlung
abstieg
antrieb
laufbahn
solltest
gezwungen
generald
##loser
kindergarten
##werfen
beschädigt
werkzeug
let
ausgesprochen
##staben
##franz
generell
nachzu
##kunden
##ín
stor
motorrad
bequ
]]
##/05
präsentieren
darmstadt
tiefen
##urcht
##-/
##ppert
typen
click
##itas
##bot
##foto
##gier
saß
brä
ausgewählt
##óç
nl
24-
##vereinbar
##imeter
lieferung
schülern
mitteilte
##gleichen
##/2012
##keln
02.
ky
leop
stehe
##fle
##misch
erzeugt
rundfunk
##behör
##ingern
##chi
andrea
integriert
traten
ausgewiesen
weiterbildung
galerie
marco
##big
inse
ehemann
erzie
standpunkt
##verletzung
litt
february
gemeldet
##fällt
ausgebaut
ingenieur
mrs
##-12
angezeigt
##âä
jederzeit
##ivals
##ariat
##pot
##úé
margar
acker
ax
06.
immun
çáâä
enge
emotion
adel
dateien
day
##zählung
##kanzler
##vg
norweg
grundlagen
çáóç
suite
flu
knochen
çáóçúé
(,
botschafter
soph
weis
##ämter
who
##standard
lasst
amate
##bauung
##wt
einigung
##geworfen
beleg
%.
verlaufen
kanal
erkannt
##/8
verletzung
sund
brachten
tieren
##genossen
oze
26,
bag
grös
bildern
profitieren
hug
scheiß
##wellen
blo
deck
diff
##iellen
##atze
about
toil
##schüler
irak
1500
christen
geringen
bürgern
normalen
##ania
##läuf
manfred
##gebirge
##ädt
nachbarn
blog
osnabrück
za
zeitgenöss
zeitungen
tiefer
errichten
opern
##ächt
konkrete
##gehalt
kilo
merk
##bevölkerung
verkaufte
##gestellten
##wertungen
##anti
##wissenschaftler
##proje
dichter
gegründete
erzbischof
##gasse
##voh
außerorden
##stadion
##ardin
##planung
umbenannt
white
##ociation
major
2-
geriet
##ason
weiss
festen
damalige
auszeichnung
##ronom
##wechselt
##fis
##ocke
beenden
##gymnasium
....
paten
ic
jüdische
##uri
##dere
1912
festgenommen
route
ferdinand
##cha
wenigstens
##programme
records
üblich
##ÿÿÿÿ
##word
überlegen
##soft
verhaftet
oberst
##ui
brutto
gustav
##hielt
kommunen
aufw
mehrmals
##gekommen
cob
fett
##kontrolle
besonderer
##fz
filmen
penn
##ässige
##rr
##oni
fakultät
ml
durchführ
helfer
zahlung
research
futter
index
##programms
schlechter
aggress
aufeinander
überraschend
schot
handlungs
reh
##elf
##llte
##ities
freundschaft
formal
richtet
beitritt
francisco
göt
##beln
##berge
staub
rio
variante
##aufnahmen
##orfer
1931
##denkmal
##beruf
sahen
##personen
##eiler
##heber
übrig
tt
long
koordinierung
games
##denburg
patri
vorn
werfen
##schreiben
dos
##eder
frühl
gei
##ments
##/15
##liter
##blin
gie
hinder
##gain
##ssitz
grupp
err
##gesagt
stehenden
prob
jord
##betten
bmw
68
mt
##ysi
synth
venedig
social
phän
##pflich
asi
10.000
january
##schild
normen
##siedlung
nachgewiesen
stab
##linger
segel
##spreis
##.),
schaffte
##tere
epis
81
##rächt
##ope
unent
##camp
südwest
##ali
##hart
77
mannheim
betreiben
zuber
bedeutende
kathar
##stal
eindr
verzwei
##schall
89
##passen
##holm
luther
entscheidend
##legungen
mögen
verliert
bundestag
erfasst
76
gelernt
verwei
tolle
cool
##junktur
bn
cru
wc
konzentrieren
diverse
ereignis
ci
gewid
überrascht
dekor
bring
landwir
unterhalt
betrachten
börsen
vorlage
mecklenburg
umfassende
gmt
schwedischen
(17
##rus
##osse
fau
ek
droht
monte
fitness
enn
brot
schmuck
vfb
gestartet
augsburg
malt
##senden
feste
aufsichts
versetzt
gekenn
grundschule
##förmig
liefert
einfacher
900
bestätigen
stütz
##sig
wahlkreis
sinnvoll
##ista
93
hockey
brunnen
##weisungen
##vermögen
tay
dreimal
eta
positiven
##gewinn
traditionelle
inhaber
##verlei
sankt
imt
run
erfolgs
unterscheidet
86
##tru
akten
kämpf
zurzeit
##gebiets
##ftige
feb
wirklichkeit
##gründer
ruhestand
society
flo
richten
geschenk
##utton
handlung
marsch
kommst
##views
##runden
branche
sele
verzichten
begründung
##verbände
}
gebraucht
##here
betreibt
##präsen
bedenken
##jon
1)
there
braunschweig
##onym
vfl
oberhalb
gesichert
regelungen
##begriff
enden
##herrschaft
##gäng
##iro
mti
potsdam
##akten
betreuung
kommentar
datenbank
ruft
itm
##familien
23,
##schließen
engagiert
exklus
koh
(9
ud
junioren
einsetzen
trafen
##ence
politischer
mercedes
67
verschwunden
tap
irgendwo
##aillen
##eider
neutr
room
hd
linz
beauft
corpor
##regen
##abschnitt
##agn
faszin
62
##krise
ät
##orchester
##news
##beschäf
abfall
##hüter
fußballspieler
sky
##itiv
gläub
##03
gescha
##teilungs
progno
schriften
infan
##üger
abwechs
##ussia
däm
klassische
empfehlungen
installation
costa
rake
##papier
lake
##teils
plattform
##pc
vortrag
academ
##ianischen
##ictionary
##jak
##angaben
grau
quadratmeter
verkün
##topic
1913
eigentum
##bri
nar
##tum
untersuchungs
##veranstaltungen
##ferenzen
quote
mathematik
##bayer
zurückzuführen
inne
og
aufgehoben
##leit
##ventionen
##sau
begrüßt
##04
##berater
wahn
geleitet
##ea
vermögens
gefl
1917
##exper
verbrachte
mittelfeld
book
##german
ergab
erzeugen
##anbul
href
keinerlei
##mobil
geboten
1.2.
stationen
kb
##outube
##verhandlungen
##initiative
##marke
abschluß
##iktor
##messe
##stufen
##punkten
thail
schwerer
##ikon
##olution
nerven
trum
gehei
marok
##prot
int
aufgerufen
tmi
coach
schied
##sf
##gesund
begründet
wovon
istanbul
final
##obel
theologie
gebäudes
##arriere
vertrieben
investoren
##staates
thüringen
##schützen
##leistet
proben
smith
##ablen
senat
##iw
einkaufs
##syn
##issement
stufe
##house
##groß
##offen
##stande
sektoren
##kos
agentur
jury
modi
alexand
spark
zählte
pfarrkirche
##omer
ies
##drucken
reagieren
##mass
kindes
gerettet
bauch
merkmale
##onomy
gebunden
##ethe
##750
cur
mä
##11.2016
erhaltung
atlan
##sea
##gründen
bedürfnisse
altar
ersetzen
vertretern
benachbarten
##asser
##ächter
##"]=
##lech
##nehmung
##pet
3000
umzu
##ql
iss
antis
##hai
##stohlen
karlsruhe
##irurg
##plätzen
magnet
befördert
gemälde
##schaden
december
begleiten
behandeln
##strichen
##mete
streifen
##tements
mall
beträcht
sagten
türen
erlangen
##teilten
##esien
##ret
anmerk
##gig
##schrauber
##ietnam
##statistik
ausstellungen
association
##horst
##adresse
rose
julia
led
ohr
##tan
gesellschaften
oscar
symp
##greg
##ywood
##emer
##sprodu
fang
##kürz
##emm
mutmaß
##dner
leib
##ume
häufiger
schlie
##flüge
verschie
##xx
ise
seitens
berechnet
##findet
denkst
##öffent
kampag
erteilt
kriminal
##otball
##tungs
vorerst
errichtete
freiwilligen
lärm
spieltag
dimension
cham
##wich
kalender
1860
##forsch
vii
##pokal
tabak
regionall
map
innenminister
##verbr
##ökonom
herrscht
##def
##vard
maximale
##bares
verknü
tän
beweisen
tagesordnung
ehre
liss
##städter
wirt
zzgl
##franken
beher
vollständige
kulturelle
xx
räumen
sz
skulpt
sensi
30,
millimeter
##ampe
erhebliche
##parks
konzerte
sehens
jetz
very
mischung
gt
##uras
##schiffe
rücktritt
##stahl
##informationen
anst
##freunde
##peter
konrad
##1999
##wetter
public
herstellen
möbel
mehrwert
##erson
verzei
##stütz
szenen
franzosen
##pö
##wörter
##5.000
registriert
under
mario
##dik
pferd
gelegene
beitritts
##hk
lernte
##-09
erdbe
##rest
##gängen
veranstaltungs
bt
##antrag
##klein
großem
garantiert
##-11
##db
schwein
kreu
scheinen
##klen
entschuldigung
edward
verhandlung
sechsten
class
##olz
erwartungen
händler
quar
ausgerichtet
fragt
buchung
gelesen
komponenten
captain
apple
71
süddeutsche
besp
römisch
geschätzt
##jub
##ränkt
##euchtung
liege
##06
unterkünfte
##ues
##wachstum
##\/
mobilität
arbeitskräfte
trennung
##ufo
gestohlen
##harmon
vort
##file
##ides
zumeist
##beziehung
##stunde
##hz
##asy
ausrichtung
panor
öffnet
##kab
##ibl
nachts
##adbach
entstehung
pharma
jüngeren
eintracht
##entwurf
erzeugung
##abet
aufenthalts
helm
##oke
##dlichen
##gewal
lein
gewährleistet
klagen
##oden
bewäl
abgel
##stem
gewinner
##sz
##beteiligung
mah
##verarbeitung
pierre
vereinbarungen
liegenden
##komplex
probe
##äle
##pause
##unst
non
recher
medizinischen
##bers
")
##aufführ
##nö
chi
bundeswehr
keram
##führungen
##etzte
kommando
kassel
siegen
haare
hamm
##aufgaben
jenn
##metern
##verbindungen
anstatt
masse
##amente
umfangreiche
gegebenenfalls
gon
schienen
##dictionary
egks
geregelt
administr
bundesstaat
gebühren
herausragen
##zem
##periode
##auss
##vens
schuf
##folgerungen
wis
##reut
ernen
ergänz
reiter
##stä
##zeitraum
our
riv
erwar
skla
ausgezeich
##zahlung
enkel
beeinflusst
zweites
therapie
ruhr
behinderten
bestellung
##hamm
entschließ
##ialen
corn
##zeption
##ameter
feststellen
übersetzt
entschuldigen
lachen
come
scott
##imir
übergangs
mp
years
##fell
beat
beine
stufen
hitze
vorfeld
##verm
##niveau
ergänzen
##presse
##alo
##kk
lokomo
##ologien
verstarb
scheiterte
people
(7)
##lein
##grenzung
##xit
berechnung
##urei
2:0
innsbruck
digitale
begegnung
planeten
##vl
zuzu
scharf
veranstalter
78
##zün
84
schlechten
1.4.
ganzes
##abon
##stel
dia
garantie
vorstellungen
##gefügt
##trat
##kennt
bauten
##märkte
##belast
##(0
zugriff
reagiert
##muster
beige
elektrische
##dll
magdeburg
üblichen
gor
kontext
##bom
##fla
##én
herausgeber
kalk
ursprüngliche
##wün
##kranken
##onischen
##ähn
rs
lever
spanische
faktor
fußgänger
##wochen
zwangs
konkret
##fd
wiesbaden
spektak
##.).
furcht
drehen
hitler
##ehren
jörg
##zentrale
##ned
cer
##kie
ki
beratungs
##terung
##hütte
schwarzw
24,
konstruktion
##verlust
nahen
##ützten
erstellung
verfasst
telekommun
vereinen
menschliche
##vort
##archite
gemisch
krone
durchschnitts
borussia
gegenwärtig
##fels
wonach
##waffe
efo
lord
sonstigen
‟
##stellers
bulgarien
erläutert
finanzen
erwerbst
marcel
##lebens
oe
entf
73
selt
-,
##hold
kommunikations
##ismen
kreativ
solches
betten
pfarrei
geltenden
explos
einfuhren
##änderung
##elor
##üren
(16
marx
fassen
##alia
pdf
beliebte
tis
##/04/17
##gefühl
reifen
##konzert
tet
komplette
aufgeb
1911
à
##jm
beinahe
würdest
ard
vene
##rond
##rohr
kanz
wipe
##rund
gewerkschaften
##arbeitungs
erbe
horizont
ford
great
finanzierungs
##design
##verfahrens
ernährung
herausgegeben
prei
##stätigkeit
##engungen
yor
##uh
orden
##blü
ernähr
bewusstsein
kleidung
##läufer
##zens
pek
beschäftigen
zdf
glocken
abweichen
antonio
längere
##246;
untersuchen
wr
sagst
vizepräsident
##sehr
##cat
##mission
vermitteln
projekts
##!!
##reche
halbzeit
##eidungs
ebenda
berühmten
komponist
infos
hölle
##grä
märkte
##attung
kläger
kurfür
rfü
schwimmen
konta
bundestags
norm
lebenden
##uay
ay
##ider
üfr
##eto
##gehende
##lehre
bibel
##phil
##uen
ross
zulassung
strahl
künftigen
dahinter
##jäger
rechtzeitig
ürf
eft
rd
fielen
halben
##siv
##steig
schiffs
old
entfernen
##echt
winkel
##hans
arti
##verteilung
##geh
tüb
hörte
##sprechung
erhöhte
zyp
##wogen
publiz
##alteten
##irt
##rechtlichen
##schenden
künstlern
gedreht
rüf
##fjo
##bayern
##zessin
##zonen
küchen
##hmann
effizienz
angepasst
standards
sympt
könnt
löste
straßenbahn
berühmte
phot
##oul
##geist
83
##adel
##data
1:1
global
gala
heiraten
entworfen
##rede
##agoge
##formation
##schla
graz
schönheit
##=1
pokal
1905
##leu
##räte
sang
souver
arrond
british
##xy
5000
seminar
überwin
##lastung
ln
geliefert
verfasste
veranstaltet
angew
verbundenen
generationen
verzöger
##auswahl
nordwest
dü
##inseln
##stellern
ernte
weltcup
##hedr
##zucht
anbau
falschen
entschlossen
##schaf
meinungs
what
wiedersehen
budap
installiert
aufgegeben
##wc
##ovo
treiben
##kum
heiz
benj
--
impul
ermordet
besuchern
militärischen
genügend
eingegangen
volumen
gewidmet
buchstabe
journalist
nato
wood
##filme
##wis
klimaanlage
ungleich
##üttel
##einrichtung
schulz
belo
verwendete
bedroht
vertrages
##lieferung
##rib
fahrzeugen
##vertrags
##gow
chris
ebenen
nahrung
noten
(15
grenzt
indones
##arta
humor
befanden
setzten
//
knie
aufre
werdet
gelöst
";
##-4
konzip
##wol
dame
papa
statistischen
##ivery
##europa
meilen
industriellen
74
wichtiges
gewässer
##bindung
doppelt
dal
##cin
dänischen
unbekannte
kevin
arthur
##ueller
##aff
##ementen
wat
ple
fahrbahn
##lab
kapazität
erfordert
##image
korru
diskussionen
benedikt
anliegen
##wg
hang
erich
angesprochen
günstig
arrondissement
versprechen
add
umfrage
##hier
gefr
##stärke
geborene
##sproblem
##weilen
genie
##verantwort
halbe
##jk
label
läch
ausser
##abilität
##chtete
zusammensetzung
##angebote
evangelische
##staatlichen
##work
ferr
94
römer
##klub
##zeichnis
migration
##trich
töchter
##igo
##gesp
##stiegen
##urlaub
voneinander
##igan
lady
schock
überre
metro
sängerin
##teams
schott
##melt
gepäck
##ferien
wissenschaften
satelliten
##assten
greifen
1907
hosp
##aria
betreut
pack
tote
##aldo
##dliche
##achteil
##meldung
synchron
##holfen
öfter
wirtschaftlich
nachhaltige
hofft
##&#246;
tan
erhalt
vergn
gymnas
##veranstaltung
weimar
konvention
jemals
stabilität
##brech
kühlschrank
##szene
beruht
##vey
homepage
föder
##rg
leitlinien
fels
sportler
##nest
günther
interessante
##aug
seil
umso
echten
##wider
leb
adels
##befehl
##achse
##ira
##preu
konzentriert
bestellt
##achtungen
##eo
überprüfung
##1994
spezifischen
argentinien
##ikaner
mb
referenz
umfasste
amar
abgerissen
oberflächen
christi
kandidat
überraschung
services
konjunktur
82
aar
##dan
update
##cing
arts
gesell
saturday
bisherige
##niederlage
ortst
verletzte
industr
frid
morgens
jahrzehnte
qualitäts
defiz
zeige
mailand
##ändischer
like
##aster
armut
grill
distr
übertragung
oftmals
rostock
ms
historiker
##fans
dumm
gehst
boch
##raucher
fertiggestellt
##folgen
##beratung
heb
##drei
##general
leichtathl
##eistet
freue
zumal
##lly
verteidigen
kaisers
##wende
verschär
##tha
erwerb
spiels
ensemble
spanisch
devel
db
stirbt
aspekt
eigentlichen
1908
lebe
##aiss
##mengen
##anni
württemberg
schlimmer
aufgew
plastik
sieb
##vö
zuschau
neustadt
##höch
##tels
befr
locker
##iehlt
theodor
##ners
semin
zeichnet
##kloster
vieh
jahrel
##mol
fragte
verblieben
bundeskanzler
beauftragt
##agerung
##aber
##orig
pazif
report
87
##fron
##itee
kritiker
finanziell
sprich
##altar
stärkung
ändert
mörder
##güter
beteiligen
bewohn
##irl
##förder
würzburg
kontrolliert
leverku
wurzeln
(†
dörfer
verstorbenen
kabinett
vorsichtig
julian
##geboren
überprüft
tam
##rain
beschloss
##mos
rue
gerichte
##pflanzen
ff
verbindlich
grunde
list
tobias
assistent
hielten
reserve
gekennzeichnet
adv
jährlichen
österreichs
zwanzig
##bezeichnung
##aga
sitze
cn
musikalische
liebt
wahlkampf
##cap
kund
früchte
heizung
paket
bang
##uff
##try
wirkungs
eva
##raf
sowjetischen
##2009
einladung
jüngste
kindheit
##alisierten
asp
gouverneur
roland
berufung
##alp
äh
derartige
##feu
dasselbe
streich
vietnam
1915
##bio
##online
game
stattf
##vgl
##rix
##werker
globalen
##banner
gesen
hollywood
##pst
##etti
2:1
##opol
##strukturen
abgeordneter
##verlauf
elektronische
junior
lissabon
##haven
pariser
##bibliothek
##riel
##gst
##anschluss
investitions
unterhaltung
glaubst
##era
thron
##verhältnisse
verzeichnis
partien
jena
##ofen
##methoden
digitalen
benachteil
##trieben
##erto
##ried
urheber
versorgungs
##ras
2)
beab
desto
iw
##eifen
##gehenden
bft
ankünd
intervention
20-
benjamin
genehmigt
##eman
drohen
##angriff
trauer
##asie
##atorin
gemeint
fühle
trenn
unterschieden
bestehend
##oppel
##fäll
bündnis
dokumentation
versamm
vision
##status
gras
spielern
aufgeteilt
wirft
##software
##stift
tsi
##gesetzes
gerechtigkeit
deu
ufa
infe
magazin
fortsetzung
hubert
vordergrund
##einsch
##sprechend
reit
98
##ía
lom
stecken
brown
türkische
schum
mang
##breite
##finder
##wortete
instituts
claud
##liebe
glaubens
zahlungen
##ankt
##suche
stars
wohnt
##schwe
##uj
geleistet
melod
##entum
ukrain
arbeite
geistes
##fia
##zed
duis
geschah
##ingenieur
angegriffen
individuelle
##lines
prominen
##ritz
##zö
berichts
nh
verhaltens
##pak
valle
fantast
##anze
vögel
##aya
##ünstler
##rip
##freu
rus
erneuert
drittländern
insekten
##aubs
wörter
wahren
alph
statistiken
rainer
origin
hohem
pon
##cast
##rl
##ssa
erlebnis
##bildungen
sven
arabischen
rub
(30
##adi
sarah
100%
unterstützte
##icke
moz
höl
premierminister
##ktischen
ausrüstung
##0,
legisl
‘
einhaltung
##ded
##kmäler
vereinigtes
academy
##energie
instand
dreißig
hong
##sprachige
##anta
steine
browser
qualit
1906
schwestern
zielen
anwohner
entscheidet
bergbau
verdienen
young
thor
##gth
erdgeschoss
2015.
schöner
technisch
einstimmig
1890
kassen
lädt
konsul
ausgestellt
nichtraucher
##äher
zuständige
versprochen
kürze
konsequenzen
nochmal
fasch
solo
##icc
wolken
nvo
##esn
jim
energien
##boote
korn
samen
##ürzte
blue
taxi
hind
##arg
ordens
strafe
maus
##serien
verteidiger
##änderungen
spons
rhythm
##.;
##dacht
##änner
herab
##auto
gör
voraussichtlich
fie
bakter
##“).
vorsicht
##nutzung
arbeitszeit
europäisches
##/2009
ß
straft
erleichtern
marktes
##09
##-05
vno
abgeordnete
fat
fär
bildhauer
uwe
luc
##umpen
unterrichtet
##ächtnis
künste
ausstellungs
aer
##ässigkeit
mobile
investiert
kompetenz
performance
heut
gesammelt
erfuhr
planen
ähnlichen
spannung
##dienstes
arsch
91
##onduras
##hus
##ped
##anie
rande
praktische
ovn
ortschaften
antisemit
bestätigung
hingewiesen
gepf
aufwand
leverkusen
š
##conom
##zügen
ursprungs
kristall
folgendes
halbinsel
jackson
bj
werkstatt
nikolaus
##richtlinie
akzeptieren
##stor
clo
##etischen
nju
##mitarbeiter
budapest
versorgt
angrenzen
promoviert
heck
##stall
beschuld
nass
unglaublich
schull
##wordpress
streng
angekommen
dorn
einzug
becker
gedenk
konzentration
##mun
angleichung
übersetz
##feln
key
##phy
##inhaber
mitglieds
##schuld
südtirol
umgebaut
nase
spekul
verfügbaren
erreichbar
##listen
christlichen
schönsten
zypern
weichen
##regionen
##kollegen
bewertet
##aph
migranten
##cfs
prozesse
ausgebildet
viktor
aufzunehmen
##krimin
brexit
##next
##_1
##nischen
sauerstoff
##öser
planungs
##eser
lauter
##schütz
gift
##–17
##eichert
tos
##etsch
##etscher
alben
##prüf
zertifiz
##dra
neuesten
onv
vorsprung
##ario
pyr
##versuch
landgericht
##sts
jn
herange
##dk
##oi
##pommern
mündet
parken
##aubt
##ergie
vermutet
krankheiten
##wachs
god
##elemente
gabriel
myth
entscheidungs
check
schwanz
kenntnisse
##gels
##forscher
gesetzlichen
konto
central
angelegenheit
begünst
##anhalt
südöstlich
##fisch
##aki
bean
##aissance
reine
gastronom
chinesische
##leihen
konkreten
dou
##ete
ausländer
gerü
schätzen
##gal
organe
##ades
weh
football
vielfach
##ior
##kins
##fass
##strahlt
β
amazon
fortan
rail
warn
##ators
##mg
haust
eag
argument
öffentlicher
fron
##kömm
mithilfe
##198
##asa
##anders
verfügbarkeit
##07
wollt
##porter
##anter
##rekord
vorwürfe
leopold
senior
williams
toren
##ovic
schuhe
aur
metal
frankreichs
##zahlungen
buchstaben
anklage
tanzen
schnellen
##uns
südwestlich
##rea
highl
##produkt
organisieren
lev
bomben
gefährdet
##nat
##laub
katzen
angehörigen
##volumen
erstaun
antreten
legend
belastung
1916
malerei
##',
##flucht
gebäuden
schriftlich
centre
##landschaft
1/
beurteilung
gezählt
märchen
##garter
schulter
maßgeblich
level
einschätzung
##fahrzeugen
##ić
kru
museen
zuschauern
obersten
weibchen
##sebene
versuchten
transparenz
##strö
eigentliche
##mäh
##hodo
sollst
achtung
wahnsinn
##acken
##kohle
momentan
gewal
##delivery
stress
cel
lem
##stuft
jones
teilnehmern
##ukle
##schlüssel
zunahme
track
angemel
ausgenommen
ralf
vorjahres
1870
inc
opf
linden
##lied
kurse
ds
kardinal
##onomie
##rischen
berufsbildung
image
komponisten
denkmalschutz
künftige
einander
##gefahr
tum
hunger
vermittelt
nahrungs
##hum
dorthin
großzüg
roth
##verträge
##olas
##mach
bedient
##ärtner
cook
nutzte
##villa
propag
usd
tp
walt
##hall
helden
##berichte
ty
einblick
derzeitigen
##fju
raub
josé
1904
angefangen
##höfe
gewannen
##uner
gesorgt
reparatur
##nütz
##gesetzte
##ries
brauer
cons
bewähr
##ministeriums
festung
porträt
massiv
##ässe
bildeten
##gee
mieten
sozialdemokrat
beschreiben
1909
##onia
individuell
##sorge
ergebnissen
nordwestlich
gekl
kast
##bla
slowakei
place
unterzeichnet
hochschulen
bekanntesten
restlichen
königlichen
##utete
gestalt
insol
gerichtet
##probe
##reiten
pay
##entscheid
langfristig
grafschaft
##turnier
aufhebung
landtagswahl
bischofs
andern
fs
sib
metz
##systemen
##mate
##ough
appell
gewachsen
spazier
water
apothe
julius
champion
kaufte
##fie
##sleiter
##grundlage
niedrigen
aufhören
support
##-5
bedingt
yemen
##nische
##machung
##sparen
nächstes
##studio
organisierte
hättest
kooperations
unterhalten
bohr
##amtes
##kost
unbekannt
##juni
jenseits
bekämp
reduzieren
1899
##ingham
leiche
##kenn
bewerber
geladen
tschechischen
##olid
kno
durften
##gipfel
##öglich
profi
apartments
verpa
vertraut
situationen
##bringung
franç
ignor
user
urkundlich
##fahrung
##08
##motoren
kit
barock
militärische
gul
##magazin
##venz
kuchen
einziger
kump
agent
##ingu
beauftrag
##aro
##räuch
territor
promovierte
##refer
zellen
katharina
spezifische
ohren
##onomen
juan
wozu
schaut
effekt
##skammer
##ways
+0000
aufgefordert
rüst
mg
heuer
goldenen
eingereicht
königreichs
umfassenden
abschied
eventuell
##tee
bezeichnen
ansprüche
make
##isser
eni
verarbeiten
engen
eingeleitet
perspektive
benn
amerikaner
kalten
##ross
light
gewerb
wissens
jeff
##tigkeiten
dum
kostenfrei
organisator
##europameister
fut
wör
reduz
##still
##strahl
##gerecht
##bronn
entsp
fließen
##verwaltungs
##etta
board
nordöstlich
gefasst
schlicht
belgischen
##teren
##ersatz
ausflug
##kirch
##mers
##2015,
wofür
look
fortgesetzt
##any
aufstellung
anschein
2:
py
respe
##ruh
##aj
felsen
akzeptiert
##ifikation
kolleg
vergewal
behauptet
fische
klosters
abschließen
dorfes
ausgeprä
stadtzentrum
therap
dauerte
einkommens
##fache
einig
##politischen
##bergs
##kh
hauptbahnhof
neuseeland
sicherzustellen
posts
##rian
develop
##schnitten
büros
body
kletter
realisiert
hinterlassen
mühle
##kne
tust
sicherung
engagierte
verlässt
access
reichte
button
##drücken
audio
##achtungs
beeinflussen
empfang
maximilian
##ässern
##fähigen
kunde
umstruktur
##arc
südkorea
microsoft
pt
verwirklichung
gent
lieblings
chemnitz
##iu
##ehrer
bistum
aufklärung
etliche
pfund
##/-/-/
sekunde
diam
zeitschriften
##ielen
##openx
sardin
verwir
##gne
angehör
steigerung
##csu
til
work
einzus
##sarda
befug
##nm
##dichte
##ziele
##gitverlag
##kleidung
##ogt
verweist
##eton
beleid
schießen
##verzeichnis
97
##side
erschossen
##gü
##oslow
primär
flüchtlings
##aps
blätter
##pern
mov
sud
##metall
notwendige
netto
##[/
taschen
bundesstraße
rasen
sorgfäl
entscheidende
varianten
sekretär
##.4
##faktor
cin
klär
moritz
stadtverwaltung
220
mars
male
##kter
##chtigkeit
##lé
##bühne
##strand
##ologischer
bahnhofs
##immobilsarda
##-9
##ely
##lies
â
lesung
##ehrung
prinzessin
find
##pop
##marken
reis
##gebäu
gebrochen
##dienstleistungen
industrielle
tübingen
ständigen
##kilometer
deutliche
festzustellen
häu
##ückte
eink
##äische
##sänger
stick
##behalten
incl
raff
auslands
##armee
annehmen
##/14
##hain
einl
adler
##lohn
vertrauens
##kapaz
##iedelt
rosa
##euro
]]>
mix
model
anstrengungen
tschechien
geschm
##00/
roger
##kreise
1880
rb
##oslowak
typische
##time
##ämmer
spring
bequem
koalitions
butter
##vm
ausgede
##strei
zustande
email
gehandelt
gefühle
##/13
8)
##medien
data
zelt
linux
aufer
kritisch
überlegungen
##coach
langzeit
kritisierte
statistische
##isi
günstigen
wahre
##hängt
##vu
fundament
##eue
befreit
einwohnerzahl
##frankreich
kurzfristig
eingemein
naz
bands
vereinbart
tak
fred
amateur
##bä
##ress
leo
umgew
menschheit
##esday
eds
fünfte
friday
boss
##disziplin
geschichts
ausgangs
##achel
lebend
erkennbar
gd
##emin
##modelle
blauen
half
force
einsätze
graben
verstand
promotion
gs
##gigen
lade
ermitteln
anstelle
abschie
bestellen
##mill
##agert
##bieten
verzeichnet
zerstörung
boston
staatsange
##vre
##drängt
abweich
2004,
plänen
##rott
nag
dt
zone
##links
##sturm
blues
##eira
1:
desselben
schiedsrichter
florida
##denkt
##bard
ausgel
ausgelöst
andré
unbekannten
esi
bemüht
mahl
heiße
durchführen
##bud
119
einzeln
leipziger
durchsetzen
450
niger
##steher
##untersuch
read
maul
##gebietes
31,
talent
container
bleibe
anträge
logistik
gehalt
##konstruktion
verringerung
kh
##kapital
engine
versteckt
pad
##bf
##cac
##brück
erkenntnisse
##uliert
heran
sozialer
any
äußerte
beamte
##rägern
##französ
sea
piz
##skap
##zulegen
kz
##eigt
##600
##bundesliga
amb
bleib
freis
folglich
iso
erinnerungen
valen
wilhel
einziges
been
1903
##itis
##förmigen
auftrags
vulkan
ermittler
pseu
flüchtling
##zeitschrift
blitz
inso
gerechnet
##kreisen
git
frien
zweitens
##vorsitzenden
krieger
japanische
allmäh
ful
bres
trop
durchzuführen
note
gescheiter
löw
##auß
virt
other
verhältnisse
##etin
##sommer
perfekte
squ
sehenswürd
navig
##etische
motoren
unterlag
##obe
tl
##bles
gehirn
schalt
10-
klingen
##reihen
##cg
##zeichnen
zigar
tasche
belegen
habil
johnson
##hauser
akteure
drag
widmete
ausgesch
schwert
modernisierung
nir
erfüllung
##varian
cross
action
arena
lukas
elektronischen
##antenhaus
##ordnen
bachelor
greift
##amo
##rechter
##antes
##vorschlag
risk
schäfer
##ausstattung
peking
musikalischen
edition
übertrag
stuttgarter
fis
##tages
jenen
prophe
hydr
genf
##hp
offizier
##zr
duell
stadtgebiet
##demokraten
##musiker
virgin
umgekehrt
reiches
kirchengemeinde
##aßen
alternativen
##ungsverfahren
##spark
obl
dreht
kne
3,5
tschechoslowak
eric
nel
kontrollen
##lav
uaf
krisen
gefertigt
##heer
kopen
##hoven
tageb
sunday
veget
cock
flammen
##tigungen
##atis
##durchschnitt
##proben
##wände
thailand
landkreises
gb
##archie
##lit
irgendwas
chin
kontrollieren
allzu
imper
tuesday
##miss
häusern
##aufent
orientierung
##beding
ewr
##vb
behei
(1.
leucht
##ology
##gold
##splans
tabl
klaren
gý
cs
##klinik
heide
##galerie
experimente
jubiläum
serge
typisch
auskunft
budget
jüngere
##raben
gelö
herauszu
##-1-
##aming
flotte
zins
##head
bayerische
call
##wäsche
überlassen
gottesdienst
##jl
warf
lustig
becken
##öffentlichen
ausländischen
##inten
reformen
##erfolg
albrecht
jugoslawien
bvg
1902
##erei
mountain
evalu
brauchst
##ützte
weiten
nachbarschaft
vorfall
##sim
##ufer
##ileg
arnold
angewiesen
send
schwäb
impress
kartoff
ey
auslegung
versicherung
##farbe
trennen
regionalliga
##studie
technischer
##/_
eingebaut
verzeichnen
##esh
##oberfläche
gelangte
##terr
sattel
bebauung
erzeuger
freiwillige
tas
wellness
##äure
wunderschö
ali
##aude
##würdig
##ific
##itim
##register
fördert
subject
reste
farm
eingangs
##springen
wöch
ernannte
##vic
##kont
##mitten
##ifornia
##mitgliedern
anfangen
stammte
diöz
rechtsanwalt
##büros
speichern
##onto
##leb
##hrop
auss
0%
##umpf
##zweck
fassade
pastor
##llerie
1850
hagen
##spannung
##alts
strahlen
##tage
##20.
erziehung
uh
##cv
##äften
mittag
individuellen
erzählte
größtenteils
##kasse
##delte
##ths
import
henn
mangeln
kolumb
##stationen
kulturen
bauarbeiten
interessierte
stattfindet
##1]
unabhängige
##3;
##sprogramme
bucht
gelangt
##ags
##ängern
kreuzung
cf
bittet
##sburger
teilzeit
exemplare
propert
schna
ausmaß
0,5
abstra
ment
##geschäfte
produzieren
kampagne
##denkmale
stürmer
##probleme
lübeck
emer
nm
wend
oliven
##yen
##izieren
afu
##ochten
einheitlichen
##mich
gebühr
##gebühren
administ
oz
gelieb
##alom
spektakul
geste
##wahrschein
absolute
laub
lm
beschlüsse
vermein
erwei
##ettern
tool
schad
wiederaufbau
##spot
viertelfinale
renomm
verbindungs
lack
herzogt
gemeindegebiet
begangen
##inos
verbands
oberliga
ej
##ungsantrag
steigern
platt
insofern
erstklass
rechen
erkenntnis
##cam
##ländischen
ausgangspunkt
einverstanden
fua
erwerben
infanterie
##ffff
angabe
verluste
solidarität
manip
gelehr
baron
##sym
urban
##alin
##beitrag
125
##ättern
präsentation
toler
ideale
wandern
##irke
seel
vernünf
zubehör
unabhängigen
abendessen
geklärt
##burgh
geeignete
bär
##gesprä
indes
strich
langjährige
lese
##lieger
##häu
reinigung
blas
geänder
##öre
##-201
diskriminierung
##ahm
erlebte
normale
erledigt
scien
##begl
these
##gründe
##kons
verbleiben
##aktivitäten
schätze
nachkommen
##reiches
unterteilt
qualifizierte
unterbrochen
lap
grundsätze
##frem
bekannter
##allery
##teu
dieselbe
##arfs
gegenstände
reinhard
prim
##abelle
wirbel
##gründung
hirsch
besatzung
konfigur
schwierigen
begrüßen
##wesens
phänomen
##iii
travel
##2008
ergreifen
##uropa
fuchs
angrei
kanzlerin
arzneimittel
zusammengef
burgen
mona
erlangte
anfragen
##azine
##geräten
%,
produzierte
ursachen
charlie
##immel
##telier
##instrument
##ütung
bekrä
mütter
briten
##ticle
schwa
##sing
##ktik
##ily
mönchen
griechische
bedeutenden
beförderung
angeklagten
umzug
innovative
##glos
advent
##betreiber
delegation
angeordnet
ähnliches
zimmern
##politische
doc
##ugen
geor
##betreuung
reiz
##skosten
##nesday
##final
äußeren
##jfs
syl
##ering
##ienst
aufweisen
boote
##key
1901
##stetten
string
##imme
führende
internen
##tifik
vorübergehend
dsch
abgeben
wuppert
siedlungs
tony
##psych
##äser
verglichen
vorgeschrieben
bert
steve
fertigstellung
erscheinung
##loch
##fordern
männchen
strö
einklang
##ampen
...]
##zil
leichtathletik
##speicher
##leitungen
laus
danken
##steuerung
muslim
erfurt
##tierenden
##itution
einzig
anhör
napole
hochwasser
##brunn
##darsteller
##methode
phant
tests
übers
auftritte
lichten
##bargain
stieß
cb
bosn
herzlich
flexibilität
##umph
hop
##pres
britischer
kommende
spont
##yball
##dg
sicherte
bela
gewiss
fröh
sas
eugen
##überw
lett
##difo
anteile
##heater
bruno
grafik
##igi
##automat
geweiht
kriegsende
ansprech
##-6
zirk
„"
quell
festgelegten
montage
##autom
dirigen
benannte
##wickelt
pian
##ynast
##ämme
hur
##zylinder
weibliche
seht
##fassen
##bewusst
erheben
diesbe
##atsch
fakten
landwirte
##ußt
##seitig
weltweiten
##trol
einwander
wunderbar
##ating
viert
##ladimir
staatsbürger
draht
typischen
##verbands
##fehle
homo
##zutage
##roll
##okals
1848
angeht
partnern
wettkampf
##card
##scheibe
wednesday
rw
##league
eduard
überfl
grossen
illustr
christop
rektor
ketten
präsid
risik
ny
##kasten
##gott
vertritt
erfolgten
##eiche
entschäd
gegenseitig
hay
##beh
notfall
#2
bereitet
talen
hütte
gaz
elegan
soziales
erfährt
stipend
##instrumente
eingeweiht
pom
##beschreibung
stuhl
bringe
behaupten
keramik
##information
reaktionen
spezialisiert
##achtete
##genz
genutz
repräsen
bere
##izes
felder
##vertretung
monday
geteilt
erstmal
erstens
verfolgung
abfahrt
##sichtigt
rechtssache
beteiligte
##zk
##etn
diskutieren
##“-
säulen
milit
einbezogen
##ilen
diversen
kommissions
##oire
herein
##lland
##inken
dirk
dekan
nit
##zog
kita
investieren
30-
##spra
listen
##/2010
##fertigung
hunderte
fuss
kompetenzen
240
##tech
##bestimmungen
bemerkt
nachhaltig
anruf
letztere
##fachen
##arth
käufer
ef
bemühen
bearbeitung
##2001
zuständigkeit
beweise
ausländische
##kör
suchte
##produkten
heutzutage
##steiner
vermarkt
12.11.2016
hf
sardinien
##anbie
##zelle
quasi
raketen
phasen
##ozialismus
lebende
guts
mandat
biele
zuhör
##samkeit
##weilig
höchstens
##ronen
chen
##äldern
sap
zwer
antike
##verletz
100.000
generalsekretär
nordamerika
##laut
schade
##teau
wandte
##“"
##bem
cab
spinn
günter
verlief
karne
##atiker
##deckung
##vierungen
230
##tlicher
##usk
##bereitung
herbei
##natur
einstellen
einzelheiten
schwie
gratis
##köpf
einschlä
religions
manchester
##20-
##litz
nukle
schmerzen
gewöhnlich
trumps
zukunfts
erdöl
geholfen
##spezial
##ktiert
geäu
##gerechnet
##chteten
airport
##iance
leichten
filter
##voller
zufällig
entscheidenden
achtel
schär
kontinent
##oa
prioritäten
##bun
malta
\
student
##dateien
##besser
empfiehlt
##zieht
##lesen
geräu
##34;
konsolid
bereitstellung
##bör
cour
besorgt
leuchten
##just
laufende
##lade
##ional
##jenige
##scho
höre
verliebt
##ursday
ernennung
##ernte
herunterladen
mitgliedschaft
schme
deal
vertretung
##verse
##,-
bienen
angewandt
osman
umstände
korruption
entdeckte
##figuren
##ella
1898
steuerung
carlos
##ufs
##bler
##irektor
mde
##entscheidung
molek
polar
##ims
bildschirm
richtete
wester
schok
##steinen
komposition
##job
puerto
betragen
ausgegeben
debü
sturz
versen
##ght
orient
aufgel
optionen
kantons
niederländische
reiche
programmen
geschlossenen
verank
victoria
bochum
kontaktieren
events
goldene
slowenien
bewegungen
amtliche
plätzen
##bourg
renaissance
erbr
poker
syd
##alischen
##quartier
##ures
##aufsicht
marokko
##jr
##wieder
solch
erheblichen
country
##kreises
##brunnen
##kategor
tipps
elektrom
they
pressemit
safe
##ici
befassen
##hon
angerufen
ausnahmen
bibliothe
chemischen
unterrichts
##dimension
verzichtet
##akete
##jer
##dann
1200
souverän
klimawandel
card
##ordneten
kümmert
##hir
urug
indischen
liebling
ltd
geschlechts
meisterschaften
##felt
norbert
bedeutendsten
##ftax
herkömm
92-
schleu
empfänger
verbün
erre
##hinter
rettung
##datum
america
bewertungen
passagiere
tai
##riffen
##geschritten
lisa
rind
kriege
##arti
öffnung
zähl
singap
##ited
ausgelegt
##illy
##fiziert
##ckar
cover
monument
##bereichs
##ftaxonomy
areal
thursday
verringert
hugo
##hallen
rechtlichen
aufzug
wohnsitz
##fähige
präsentierte
befasst
schuldig
witten
rolf
##server
##athlon
##jagd
umgewandelt
##cles
##koch
geehrt
armin
schönes
jobs
marktplatz
+43
unverändert
angeklagte
kopenhagen
##zusp
rout
serb
festivals
mieter
##weltmeister
##inens
##oro
##cp
##posten
macron
##hedrale
25-
photo
verdienst
erweitern
gestattet
##cover
spüren
##))
vr
verwandten
##ommel
trugen
änderte
negative
historisch
inten
gemeinsames
##äe
##feuerwehr
##ikte
ergänzung
##portiert
##(9
##."
##itären
##sign
irre
xp
anwes
geister
##nutz
kreises
verwandel
##öte
##rake
##schäden
kleider
kennst
denkmalgesch
bug
leiterin
anschlag
##dez
##igh
palast
orche
treppen
##personal
##allgemein
niem
##kv
(9)
geom
parks
knoten
##zemed
insolvenz
##fecht
vat
aufbewahr
##erung
harald
##bell
##timent
letztendlich
##oy
##hed
vorbehalten
##illas
gemeinsamer
polnische
oliv
night
giov
einher
verbesserungen
##xp
##ernd
duisburg
##reen
##schnitts
männlichen
einheitliche
##oir
##borg
gutachten
kick
abhängigkeit
##erte
hinweisen
chile
##fro
1.000
vil
##schull
##reuth
##ürt
pant
dauerhaft
anschließenden
##sland
##xid
##dite
afghanistan
shop
moderner
18-
hed
blind
##oga
vergabe
":
##strainer
sohnes
##gefangen
##äufen
starben
konstantin
##ypt
##sdap
##nb
traditions
##sterne
wick
brennen
##grafen
allianz
digitalisierung
petersburg
##häfen
##mz
ausde
##vereine
2.1.
ari
##quis
heid
##sters
unternommen
##brem
##tennis
##skirche
gregor
zucht
geduld
grosse
##/-/-/-
portal
endg
friedrichs
sprecherin
verbesserte
potenzie
bestes
secur
##lösungen
foss
##seit
jar
verraten
##dos
minus
##sparteien
heimatstadt
sinken
story
dog
perman
priorität
tü
ausübung
##decke
##zweig
liban
##förmige
russisch
##quoten
stärksten
##schwung
erlitt
##ups
base
dev
##gleis
straßburg
##hat
hauptrolle
##-04
lehrte
dankbar
zurückkehren
schult
##pläne
##gärten
after
##"]=>
1895
cous
##nik
##etto
studieren
gießen
weiterentwick
##oms
##ury
##modus
konfron
tokio
englischer
beantworten
modul
##mangel
gebil
##bury
busch
##priv
##ansicht
sichere
eigenständige
braut
abd
weiblichen
##sohn
##eide
schottland
7/
verarbeitet
##firmen
##ident
aven
claudia
freiwillig
begegn
##bour
analysiert
künstlerische
erleichtert
##ängst
angehörige
##immy
conne
##offs
wfs
konstanz
volkszählung
##hammer
##spunkte
ausgest
dicke
hohes
fangen
ih
##cos
5-
verringern
virus
beseitigung
kär
laura
kumpel
gestanden
beschrieb
sanktionen
nenn
epü
##kei
##ès
warnt
15-
einleitung
laser
##agr
##kandidat
eigenem
stehende
graph
reihenfolge
##lafen
##fotos
nest
erneuerung
wohnhaus
pit
siegte
authen
gewisser
oberösterreich
circa
reiste
ice
##anka
kochen
erweiterte
0,0
youtube
publikationen
##messungen
campingplatz
kinos
kuba
speed
befreien
##arabien
kanadischen
hamil
##transport
grü
bewegungs
bestens
schiffen
ausgeglichen
##sbür
geholt
gefangenen
##/92
laufzeit
##staffel
betru
##mb
##wache
anrei
abkürz
##-01
##ush
bour
##nein
stiegen
sperr
bronzemed
##karriere
gewichts
zusammengefasst
bescheid
##vom
##mio
begriffe
##state
1896
ostsee
qualifikations
bekamen
##aufführung
vernetz
rechtsprechung
wahrgenommen
##laß
##bold
rückstand
edm
putin
mig
tschechische
1897
##iol
orange
nachteil
bäcker
frühling
##iza
kehrt
##orca
hoffmann
##sef
##super
patient
bescheiden
erklärungen
wehrmacht
hinzugefügt
sächsischen
stockholm
faust
äst
peru
##belastung
verletzten
##schmer
herrscher
untereinander
sauna
##style
##ppich
##install
umfangreichen
harmonisierung
gefär
andro
samuel
abgebrochen
feststellung
strategien
##wu
dingen
konsult
##rü
##rio
##onne
[...
##redakteur
##iede
conc
leichen
##abkommens
reservierungen
pä
eingestuft
artikeln
##steuern
israels
##istern
beigetragen
##world
##wod
karib
beantragt
ungewöhnlich
##braun
gespeichert
alger
##beiträge
##ppy
tq
##riet
##künstler
##uft
usb
##rem
(%)
lex
##visor
lobte
##schöpfung
südost
rechnet
##fertigen
sympath
betroffene
equ
##berts
##märkten
gemeinnütz
##attle
landesregierung
point
intelligenz
gitarre
##2),
bog
##schende
beschwerden
##bele
bischö
kennenlern
größter
befreiung
##ism
parameter
väter
flagge
##ao
##olet
tendenz
kondition
##mannschaften
klären
sternen
jam
##rechtliche
##brief
flash
##vogel
ausgerechnet
##zessen
##300
energ
empfind
##bezirks
##eingang
##ultra
##schutzes
scheitern
##eds
sabine
gleis
musical
religiösen
##tagon
##ktisch
produzenten
heimspiel
##pre
termine
lächeln
##pho
##unk
little
fpö
##betriebs
##plus
##meyer
mühlen
##sites
wachsenden
##abgeordnete
##schauen
##zeugnissen
bamberg
florenz
praktischen
evangelisch
match
derart
tg
length
anordnung
tänzer
jänner
##syl
##ianer
##kapit
stop
##zepte
##versicherungs
bosch
lä
heeres
rückzug
salzburger
unmittelbarer
angriffe
##kb
radfahrer
eingezogen
##lee
##rische
##erzeugung
liegende
verfügte
##geschäftsführer
##schuhe
sowieso
expedition
harte
##ulieren
##jdiu
##moder
##zieh
development
##kru
erwähnung
##örung
##filmen
käse
##oppelt
##ground
##hou
bow
##-15
grav
nähr
anzuwenden
merkmal
künstlerischen
erm
zwie
##alli
##telefon
zeichnen
versionen
starker
irgendwel
lov
diego
##restaur
##sprüfung
tdi
ozean
porto
siege
alternativ
charlotte
##alm
witt
emd
##wik
rott
böhm
##::
##fug
austria
füllen
meldete
ermittlung
rend
durchbruch
##idae
mitgeteilt
elektrischen
volkes
dokumentar
##itäre
hauptt
ziffer
##ieu
##ergebnisse
planungen
##rica
##ysteme
vergleichsweise
smartphone
##inus
##tron
demo
ausgestrahlt
##anch
sende
##genehm
werks
erinnerte
rast
##stisch
bestre
berühmt
distri
kot
##gladbach
pion
zufall
parkplätze
##weihe
ertrag
erlaubnis
zahlreicher
enttäuscht
##wat
koffer
rechtsex
unterstellt
stattfand
vorgaben
##bstahl
##-03
##cul
zusammenschluss
brechen
großartig
handlungen
zweig
src
##funktionen
geeigneten
##mensch
##städte
##mittler
##lls
gewährung
begründete
##grüne
##iler
##consult
drücken
ré
womöglich
##hafter
10:00
tatsächlichen
ji
barb
nhl
##getr
kämpfe
lösch
##sst
begleitung
äußern
übel
##professor
##prem
geschirr
vermisst
##haut
##2012
dna
area
most
umgehen
staatssekretär
##qq
wales
##zufrieden
beobachtung
jahrhunderte
##raums
360
##power
##cra
##ulous
portugiesischen
##istet
forstwirtschaft
honor
grundlegende
aufrechter
##zeugs
##indel
veter
städtische
##sieger
##schefs
iphone
cass
##hut
##isierungs
springen
angewendet
1800
sank
börse
##quert
bedeckt
##iß
##ärer
duo
wussten
rechtliche
gumm
##ureihe
##fk
verun
niemanden
lehnte
bauwerk
eröffnen
hobby
fraktions
##30.
pia
##öffnung
beigesetzt
snow
##hmt
schätzungen
volkswirtschaft
dme
günstiger
endgültigen
##standards
##gezogen
##&#10;&#10;
##turn
unregel
cad
##mp
jtu
gekr
kilogramm
vorwärts
##untergang
##merkt
wow
##journal
einheimischen
wünscht
##finanzierung
mitunter
schichten
glied
zinsen
kem
##ores
schwieriger
verschoben
erwiesen
ls
rassismus
##gottes
eintrag
fertigung
zerstören
##tat
##okl
##würfen
erdbeben
sichergestellt
##mente
maje
protokolls
##fert
potenzial
##itte
mühe
fortgeschritten
sozialistischen
dreck
##-21
urkunde
##oxid
##betrieben
erzielten
veröffentlichen
ausbruch
sd
##vc
eichen
##uchten
##funden
mcc
sid
##0.
frequenz
##bass
1871
ried
theat
##iem
muskel
urlaubs
übereinstimmung
##ăź
aufst
##ingst
##zession
differen
verstärkung
geschl
miß
##spitzen
beruhen
oldenburg
italienischer
inhaf
bitter
##rut
industri
##blut
nich
gestützt
##becker
vorwurf
bundesweit
uruguay
höhle
vergleichen
##1998
kälte
schalke
medaillen
dikt
unzur
inkraft
erzeugnissen
beute
##ünder
##llten
amtes
which
laur
verspricht
##bee
##ypen
begab
inmitten
antiken
hamilton
freiheits
abwasser
office
verpasst
ferienwohnungen
##/20
##elles
davis
##aer
esd
verschm
vergleichbar
##/6
betreten
soldat
siemens
hoffentlich
missbr
instanz
üblicherweise
##stagram
##bestände
korrektur
ungarischen
dokumentiert
##grie
trau
##roy
##herrn
held
##aufwand
church
##tagen
angestellten
buff
##nc
rücksicht
täglichen
##eie
beau
dietrich
län
##oti
##jährig
##bing
rinder
aufgeben
völ
demokratische
spö
##gio
anm
goethe
##händ
liver
hessischen
##siver
lautete
exzellen
fuhren
##ungsmaßnahmen
stoppen
econom
trainiert
kut
##menschen
##hob
globale
##onna
schmel
gebür
verwaltet
schlos
elektronik
errichteten
cos
##kommand
{\
##älen
##></
landete
prüfungs
##prinzip
##pus
shar
##männer
ziegen
##geregt
gleichgewicht
söder
##ysik
##kämpfe
schaf
besetzten
geworfen
##nberger
iron
dring
verordnungen
ewig
##ständiger
kompromiss
##egas
##ials
##gestellte
dokumenten
verschlechter
magen
aufrecht
##bec
mittele
fracht
decke
vermittlung
osteuropa
##ulf
dse
liqu
spirit
zir
##geschlecht
korrig
blin
betrunken
chf
abgebaut
##aba
##renn
dement
erinnere
schlossen
stall
roboter
baustelle
gesellschafts
adap
##zeugte
##gerichtet
seh
getreten
##swerte
prototyp
italienisch
ansichten
##prob
schwäch
##null
##mart
bewahren
christine
##iern
wählte
##],
##zugang
gedicht
##parlament
ablehnung
nsdap
drama
##iziner
kommune
allmählich
abschaffung
##bedürf
produzent
hän
kommande
##bir
##eiro
##ithm
xj
##uston
##kee
langem
sammel
##kredit
&#10;
lasten
##oppen
extr
stattgefunden
##üpfen
##ositionen
rechteck
spreng
werder
keineswegs
##erz
magn
##antrieb
witwe
holland
niedrige
kontinuierlich
jag
##alische
liberalen
##schwar
gur
pläd
##sheim
akzept
unsicher
##größte
agrarpolitik
##ühle
bewerten
bg
head
befindlichen
##hundert
trock
č
target
öffnungs
@
platte
schub
##gleichheit
trinkwasser
umfaßt
auflagen
dublin
harten
3:0
frische
##osh
plen
##lasten
##dischen
landen
##vermietung
vermin
##hrt
rezept
anrufen
weile
##ätigkeiten
dim
seelen
werten
sicheren
##lles
bereitschaft
gezielt
##rf
besatzungs
litauen
sitzungen
kannte
angestre
##2013
##fügt
erdogan
ermu
##maßnahme
##verständnis
entspannen
umliegenden
##ührt
gelaufen
wahrnehmung
##wiki
some
kompliz
##atter
abseits
sde
##ürtel
leih
regionaler
##brenn
pick
##respon
erdgas
##pension
drehte
##etwa
wut
christopher
2016.
##anntes
##unternehmer
eigenschaft
##bergt
rod
besorg
##anspruch
schließung
##unnel
##ecd
hür
##anzeige
studiert
##bereiten
großvater
clubs
##achteten
vorbereiten
##%.
änderungsantrag
##ict
##sperre
gegenwärtigen
schlei
##nä
##euerung
workshops
const
##meldungen
infor
##gebühr
##computer
##ifiziert
märkten
londoner
schwedische
gipf
kreise
studierenden
anwesenheit
##rett
hahn
marcus
gýs
verbreitungs
aster
steil
siz
befragten
psychologie
chaos
kaufmann
einzelner
##heb
##ölbe
potent
begraben
ämter
##champ
verdienste
profis
##fcf
eignet
ausgegangen
##owitsch
einzusetzen
abschließend
beeindrucken
volker
stützen
##spielerin
exil
europäer
installieren
##2006
nom
umstellung
tja
##counter
arbeitsplätzen
kombiniert
füße
##sätzen
##sprojekt
internationales
ara
##werkstatt
##ather
zeichnungen
+41
##gemä
pens
space
##genda
##hh
designer
##baut
bonus
geschwind
##kp
taylor
1893
dau
##anton
unterliegen
##joe
rtl
schmutz
bock
##bewerber
bereitgestellt
him
malte
ziegel
wüste
obere
##list
##skomm
strukturfonds
##bauern
spielklasse
robin
##eni
doppelbett
##round
seinerzeit
##umbia
##jul
lich
pist
nächst
##pädagog
piloten
zwingen
pfad
chirurg
periode
##stehend
##denkmäler
##boy
angreifer
gis
vogt
anzut
##schäd
12:00
##strasse
cott
ausführungen
ow
##operation
absolviert
impro
##alie
##äums
flugzeuge
schlagwörter
##beweg
##ierbar
contin
ungen
##arbon
basil
kürzer
saisonende
##wolle
verteilen
männliche
einbeziehung
fungierte
##skrise
wünschte
##pit
##blau
##infrastruktur
##oria
festsetzung
##omme
##deg
##tierende
nan
konkurrenten
liverpool
##tiz
abgehalten
ästhet
##lach
dutz
##uchte
abra
##zeigen
jonas
staff
##leten
technology
mé
##laster
verursachen
camb
regelmäßige
##kna
lungen
jetzigen
ergriffen
volksrepublik
zoo
korrekt
eingegliedert
##rc
##zg
stimmte
entdeckung
geschossen
1889
gültig
jurist
lieferte
überzeugung
##ütt
nem
büchern
##ahu
erwischt
trier
eigentums
unterbrei
blaue
wolfsburg
##sprin
entstandenen
##haar
künstlerin
beides
erhebt
bedrohung
amtsgericht
angesiedelt
analysen
##ikern
##vorher
negativen
##“),
systemen
##friedhof
euren
anth
unesco
sess
##führungs
##mien
##heinz
bekräf
##tit
parag
gewinne
integrierte
##delten
##rath
qualifizierten
##hub
gene
jess
wik
##profil
castle
##cri
##stars
einzur
##eistern
nationalpark
verpack
detaillierte
##-08
##aks
then
##qm
derer
dutzend
wiederholen
##institute
##iedlung
welle
drachen
gestaltete
verbände
##ssr
##zeits
geltend
##öten
##plant
integrierten
rente
mount
unzähl
interne
##bayerische
##2014
##(2)
##tisches
konzipiert
##-8
würd
hinterher
jeweilige
did
rea
traurig
zähne
gärten
council
##party
schwarzwald
##dm
##-06
hinauf
besich
lebensl
special
abgelöst
##forschungs
arbeitsgruppe
saniert
kies
##esi
erarbeitet
fik
funde
vorgeworfen
kov
aufträge
##stages
##gesucht
investment
aufkommen
##älz
ehemals
refle
##zusagen
gewebe
tickets
##llekt
mans
berichteten
##dim
##rey
prinzipien
##1),
##umwelt
bilater
##schlüssen
kai
unber
speisen
elektriz
optimale
triumph
lp
teilgenommen
##tigem
##nov
bevorzugt
antwortete
getrenn
unrecht
russen
blüte
salv
einfluß
lewis
standorte
##hit
seu
schröder
gebet
kämpfer
##fw
##busch
techniken
##dist
##drom
darsteller
##rer
##ümmer
luftfahrt
##division
widerspruch
instagram
pressekonferenz
##bw
brad
lügen
sydney
##östlichen
uno
##ful
physi
##acke
##fso
och
##skraft
(10)
könige
gäbe
nordir
##etisch
##5%
stille
verleihen
##bereitschaft
alan
premium
tax
ansprechpartner
##cio
zeitungs
betracht
sports
rechner
gewünschte
##gram
##home
##yon
child
##arat
häfen
##aver
kolonial
(2.
##mad
##rechten
##gespräch
viv
eingeschränkt
##inki
touch
fernseher
##pton
##ichtigung
##emens
ihc
##sbach
##sack
##ipedia
##sterben
siebten
konflikte
ø
##paket
heimischen
singt
##"?
bäumen
liechten
anscheinend
aufhalten
verstärken
##literatur
knei
##biet
##sicherung
schweigen
anwesend
wun
hygien
präsenz
##stage
##tie
apfel
earl
wilson
legende
hütten
zeitgleich
##bekämpfung
privileg
##brüche
##eku
kämpfte
corporation
##kc
ehepaar
europap
warschau
1892
garantieren
verwies
offic
römische
(14
abgestimmt
freundlich
hattest
hubschrauber
20.000
##city
athleten
psychiat
residenz
susanne
##kompeten
registrierung
tenden
380
ruder
##testet
lis
##folio
1885
750
schacht
##inson
1888
##binden
brosch
##gon
betriebssystem
auswertung
##zs
sprint
##achungs
studios
##tremulous
ausarbeitung
#3
##1996
sten
zitiert
aussieht
inkrafttreten
##wandlung
dav
doppelzimmer
##olin
produz
##spektion
##reißen
informatik
##stücken
aufzubauen
12-
rätsel
hardware
bauernhof
lehrstuhl
##eilt
axel
##standort
dunklen
produktivität
##anto
rauchen
ständige
zentralbank
löschen
210
offensive
##glied
erör
##verschm
fraktionen
##roman
gesetzgebung
##geschichten
analog
westliche
els
abw
##itees
##sub
115
dichte
auswärts
realen
50-
##igator
autorin
kommunistischen
medikamente
progress
mönchengladbach
lock
schweizerischen
##gungen
scheinbar
konfrontiert
##rent
anhörung
##anh
landwirtschafts
color
##dd
##ungl
neugier
##geschicht
rico
io
##illes
105
##rw
touren
##ynastie
spektrum
##auschen
##schweiz
aufführung
##nick
|
swe
##tia
fliehen
##neg
anstren
(198
entspr
ov
gewähren
##1997
indikatoren
type
##herzog
##uma
##face
petra
##wahrscheinlich
debütierte
##füllen
leber
##24.
##ude
##tick
fäl
diagnost
##/93
hanse
##etrie
##situation
sorten
freute
porsche
therm
prost
quant
interpretation
nut
wra
wunderschön
seltsam
überwinden
##athan
funktions
##vious
##shop
1:2
rid
wendet
universitäts
verstö
##streben
zeuge
##währ
##master
##einschließlich
mehrwertsteuer
##vergleich
serviert
##rm
##mine
längeren
yorker
provinzen
aufwend
idi
sophie
carolina
konzeption
busse
##revolution
ticket
himmels
pfeil
dienten
distrikt
##/7
##otti
##trock
eingel
awards
mitgliedstaats
##inois
stephen
inschrift
alphabet
kate
wy
lecker
geäußert
queen
##rechtlich
verwend
singapur
giovanni
eleg
##ifizierung
handwerker
bronzemedaille
##veröffentlich
##geschnitten
only
bielefeld
##zh
sexy
cher
##äule
cell
freder
##füllt
deze
##schichten
##dule
gefüllt
##neue
##reibungen
##arnt
sack
zurecht
3:1
##kurier
##ätigen
unzul
gewohnt
vergnügen
endgültige
dänische
##inea
bewill
wirksamkeit
konservativen
torhüter
1894
liby
##4576
pfei
gedächtnis
akust
wolltest
##2011
fbi
besonderheit
flüchtlingen
##essa
wim
billig
glatt
alice
gemark
vorzeitig
erbau
gezahlt
aktivität
##/2.
marina
##ampf
##bege
geis
estland
inhalts
regulären
##&#223;
mn
spru
##wertet
atl
typs
##aldate
##wunsch
anlauf
effektiv
##erzeugnisse
wände
umgebracht
##chtes
müde
##leiterin
##kurz
moor
etage
abgaben
identifiziert
rufe
##ffizienz
ludwigs
gesprächen
richtungen
rotter
vollzeit
berechtigt
##gemeinschaften
getestet
##jp
geschlechter
kathedrale
##rte
##stex
tah
verlags
##korde
##andal
buen
##clubs
australischen
mais
kräftig
##felden
##yll
##ämm
rick
testen
nachfolgenden
##hns
nb
##helfen
vormittag
##räg
cit
eigens
erkannte
gue
##vania
düsseldorfer
schlus
jacques
##verbo
lars
##pression
author
gestrichen
##uster
experiment
langjährigen
born
senken
unein
roma
mayer
sorgten
häufigsten
lyr
piet
##sigfre
##cis
##mauern
##autos
##sigfreeid
angl
keit
löst
revision
konzepte
seltener
##gw
offener
##vester
##ufa
##regiment
attraktiv
vorab
##jähriges
##plattform
##keller
streitkräfte
vorangegangen
##faktoren
begegnen
erlitten
##user
zar
pader
##2007
spren
vertik
etappe
italiens
treue
##-1#
tatort
abfälle
##764576
##liehen
metrop
comp
##otocac
bricht
##iccaldate
##kong
##verdäch
##gerte
##investitionen
demonstration
ahm
stetig
xi
##.5
##rücken
1-
interessieren
zugute
##gelder
tjdi
kommandant
schieß
geräten
swiss
wpo
verpasste
mau
fehlte
riesigen
##dee
rm
reichweite
altes
nirgend
protagon
##unterstütz
dreier
lun
##cuba
##illing
sara
4000
vorles
##uro
##wanne
trio
inflation
gastronomie
bewun
wälder
##transpor
##amtlich
##fertig
westfalen
##arena
##schach
iz
when
##umme
pfalz
sofor
##gd
direk
##arbeiteten
pflichten
unzureich
benutzung
##itierte
afrikanischen
##erkennen
vorhandene
##krebs
eskal
ultra
gelöscht
##hot
##ieb
##möglichkeit
(;
wöl
##gegner
##spol
gun
##irekt
sklaven
virginia
##dell
cord
kara
##provin
erkrankung
##eib
##uble
enthaltenen
##diensten
uhren
einzelhandel
##schir
admir
##schwitz
prix
thre
court
weine
##repräsent
tang
##check
teich
##kers
befre
bedienen
zusammenhängen
##ücher
##preises
##sat
trik
honig
binden
dürfe
erholung
##profi
food
wuch
##rim
nachvoll
angrenzenden
einzigartige
moon
könntest
charts
##oid
durchgeführten
daim
##ausgleich
freitagabend
##schub
##iments
kämpft
lauten
monster
##orer
ale
häft
serbien
-15
tho
carr
opfern
auftraggeber
##aufgang
synagoge
##spräsidenten
klö
##blenz
steck
##partements
dissert
##milch
emission
aufsichtsrat
##brach
##reinigung
götter
##neiden
##ografen
langfristige
challen
1891
inwie
dennis
diagnose
##schin
##ehn
##fax
dementsprechend
auswei
nachkriegs
schirm
highway
##1990
perio
##ückten
studiums
##ecu
pflanze
ted
##städten
argumen
##sprogramms
ausb
aufstand
gewählten
zusammenfassung
##/94
##eler
vertriebs
bearbeitet
##"><
##nachl
flur
regelmäßigen
flaschen
##rele
bös
##wien
trends
standorten
unweit
demokraten
unfälle
beanspru
##izen
neuem
##2002
##hauen
kent
##eistungen
woi
##beamten
krim
messung
einstellungen
##führenden
irischen
reformation
legten
##kandidaten
übernahmen
0:1
fing
verbracht
glanz
übergabe
jh
##schätzung
gottfried
ehrgei
privater
##zien
beachtung
briefe
einsätzen
##onanz
bösen
andrew
rog
meß
##terien
source
zulässig
dance
brauerei
##ty
##gelte
##emeister
##eidete
überliefert
##imo
perspektiven
benzin
##aken
einschränkungen
##ahrt
lebensmitteln
months
columbia
##inav
südafr
boten
bereiten
zunehmende
##worth
beschlag
eliz
##sammel
begeisterung
ug
assist
bewiesen
##zes
breiter
##versuche
kollege
wuppertal
##obt
boy
##dokument
verwandte
ausgerüstet
##flu
##achus
südamerika
stie
1/2
##fru
pest
begeben
ungew
beobachter
freilich
untergrund
orf
entstamm
polizist
girl
abraham
##boo
##schar
besseres
fremde
umgehend
##ziff
##hessen
##kämpfen
##olph
speise
schulleiter
##sonn
ric
erfreut
##pson
##getreten
mannschafts
##cla
aufsteiger
herzustellen
poll
leistete
##fet
festgehalten
attack
##hofft
##ral
##ares
zorn
nebel
wiederein
erledigen
##einnahmen
##preußen
##jes
corps
flasche
##führende
##finger
kasten
zukünftige
ermöglichte
##abwehr
beleu
homosex
##vorpommern
flusses
hübsch
intellekt
##jun
##chffff
nadel
palästinens
reservieren
##phia
##ás
their
kommandeur
jersey
begriffs
##iegeln
erläuterte
##bier
finanzieren
##autob
##reden
medaille
jimmy
sexuelle
ct
1874
bosnien
##sonst
lastwagen
security
##eline
##ruhen
##bestimmung
##+01
gewür
ausscheiden
kleid
lücken
schwank
##poten
truppe
reeder
##höfen
clin
hels
##istry
aj
hydro
feucht
bürgermeisterin
johnny
##leuten
##uan
heilig
sportliche
torwart
größerer
bedeutete
grundlegenden
##änkischen
weiler
##äuer
olaf
krem
sektion
glü
gehö
verstärkte
övp
persönlichkeit
##bezogene
fehlende
vorlegen
nes
##terrasse
championship
##skontro
pausch
lyon
instrumenten
unend
##gelung
##uti
1,2
1879
cornel
wertvoll
organisierten
gegl
verstehst
vincent
1887
care
##deuten
fã
##zielen
vereint
haustiere
verbundene
##übertragung
zag
##schee
texten
alliierten
eindrucks
gelebt
wertvolle
zeichnete
##eltern
deutsches
##reb
registrieren
##georg
biom
weiden
vn
ernsthaft
3)
symptome
##esende
##bewertung
eingesetzten
echo
landwirt
gründeten
##utch
heiden
lehren
jegliche
##größen
valley
aufgewachsen
##kuss
entschuldige
1875
vollständigen
##örn
##träger
cambridge
##versicht
buddh
skulpturen
sonntags
##wk
innovations
##rk
lebensjahr
##säure
##atlan
##gebunden
externen
##sslich
##gge
##sozi
zusammenhalt
minderheiten
demn
panorama
##teilnehmer
auszubilden
sinkt
stärkere
elfmeter
zentrums
##onnement
##hund
##zyklus
##imes
##witt
tauf
mitnehmen
diet
redet
zahlt
verstoß
tuch
++
themat
üben
liechtenstein
exakt
sekundar
##uv
##genossenschaft
sportlichen
##beschäftigung
##zeitige
##oon
every
begleit
oberste
religiöse
##reser
legitim
opel
fühlte
attent
örtliche
##xl
mallorca
mete
mult
wilden
roch
previous
werft
flieger
bene
##sylvania
series
191
##kombin
drüben
namentlich
zukünftigen
##nf
jura
lands
unterbrech
##urus
##ów
trick
vorschlägen
garden
verlang
hild
beläst
niederschlag
##(4)
sog
volkswagen
aufteilung
olympias
auswärtige
##englisch
##vorsteher
nummern
glücks
identisch
transparent
##eda
verdeut
substanz
aufbauen
markiert
übermittelt
##jd
wladimir
isa
were
##come
erkl
heftig
tante
kosmet
umzusetzen
##ommy
erik
woiwod
##liegende
lyn
1866
##tari
widerstands
güte
pend
austrag
##rium
##dif
##gungs
schickte
dop
gren
##original
hochzeits
rep
##ying
##brett
kreisen
##sek
reichlich
einstieg
gesungen
wachsende
berger
##minton
##span
##serklärung
berührt
##/95
##ower
##+01:00
arsen
mächtig
1.6.
foll
(40
two
eingehalten
veranl
##venten
ankündigung
##hee
##frag
alm
jordan
##alon
sakr
##auffol
debian
##wy
luis
##sprecherin
##nk
telekom
civ
player
##produktionen
efn
lon
zuversicht
gord
gremium
sorgfältig
##änke
untere
nötigen
bekämpfen
netze
kamin
sf
vorgegeben
##hänge
münzen
gehäuse
mohamm
##kraftwerk
geredet
##akel
##''
##scheiben
schneiden
mäß
unternahm
##stream
##player
##ächern
vermarktung
##ertor
lokaler
##viewtopic
diensten
halbjahr
wissenschafts
graus
##beispiel
##grem
prinzen
##aufbau
##kare
192
##öhnen
##spolitischen
##eigenen
##aqu
katze
liest
erneuten
erfindung
darauffol
gleichermaßen
tauchen
verwandelt
##oman
pfor
paulus
schwierige
##nem
leinwand
spannend
umgeb
##ffizient
clark
##800
##oks
##stich
jr
##öhnt
bvb
##enthal
comic
scholz
next
##iri
professionelle
(13
neapel
vas
erwähnten
erneute
arbeiteten
ausschreibung
batterie
bären
2021
behinderung
##verbind
wohnraum
verant
##ketten
kriegsgefangen
angenehm
##stin
##sgruppen
toronto
##ench
##ternacht
rit
##onente
##eti
19%
implemen
billy
ausgehend
hus
jenem
bezeichneten
##hers
betätig
jog
transportiert
katastrophen
bestra
##vy
##ift
##augen
##ärzte
1886
höhlen
einzugs
##unft
kritische
angemeldet
verstecken
##sportler
geräum
##bia
verbrauchs
geschwister
##marathon
ausblick
ellen
##klaus
enorm
##ausbau
fue
chrom
claus
##ippe
hasse
signif
erfahrungs
##prise
eröffnungs
vorbereitungen
steh
beschränken
(),
rate
bedingung
vergrößer
kali
gallen
favoriten
properties
nachhaltigkeit
ibn
(1),
renoviert
defe
beeindruckt
haftung
ingenie
##gerichtshof
stellungnahmen
##volks
versuchs
##zä
##deter
##boe
abgeleitet
verbund
soft
##dur
erfassung
##unternehmens
##rade
motive
schwimmbad
etik
operationen
beleuchtung
##artett
brian
überschritten
navy
##eigert
erfunden
prüfungen
##verf
price
stem
stürzte
willi
fußballer
selbständige
philharmon
##kabel
erden
beschlusses
auszeichnungen
##kraut
erfolglos
anleger
beherbergt
##2007,
toilette
zier
file
erhaltenen
maschinenbau
albums
##ohn
##sbank
teen
kurzzeitig
##option
bezog
dynamik
##cep
##run
vent
govern
schuh
tätigen
erhöhten
schrittweise
helsinki
##ference
##gehoben
hervorragend
##verletzungen
öffnungszeiten
nordkorea
anzunehmen
##ordens
##icz
ere
bekennt
andauern
formuliert
##gc
π
##shire
ces
famili
##erb
##radio
arbeitnehmern
pav
mauern
bib
vorherigen
schoss
18:00
ausfuhren
israelischen
##anbieter
##filter
##ár
aires
schickt
##verbund
anzusehen
versorgen
selbstmord
unterird
entlassung
16-
oecd
rache
##bildern
##otherapie
siegfried
##anes
störungen
##bruchs
emigr
evaku
##sergebnisse
##pfte
boots
ansätze
##ungsbedingungen
kommunalen
fortuna
##1995
tourist
entkommen
musikalisch
hervorragende
##ication
##istum
##icks
##ilo
täu
##okomo
mündung
flens
forschungen
einsatzkräfte
gerd
dazuge
pakistan
##üe
##überwachung
definitiv
durchgang
##äußer
dazwischen
expon
karin
##sendungen
##anforderungen
philadel
annäher
grundstein
##äufig
mega
##kür
rf
mosk
populär
##gerung
lohnt
##maier
abgabe
gam
rubr
ortsteile
cart
##schreiber
##herstellung
dunkle
johanna
##zuhalten
campus
deckung
peg
mani
strategische
##anträge
##-02
##geheim
##andem
salon
siedlungen
##idt
tes
gedichte
zugewiesen
ea
nachdenken
##reitet
##tainment
jahrelang
angegebenen
vermieden
hour
##berichten
enthü
präfe
expans
##ören
ask
ausüben
##schnell
hochwertige
##luther
tauch
deutlicher
lea
steffen
##shut
brett
gnade
trom
beträge
vorliegt
abriss
wechselt
ausgewählten
##andet
##bron
cod
##zettel
externe
rost
barriere
weser
nc
sandstein
##bole
##hern
kaputt
sparkasse
spannungen
diakon
##vögel
##charts
beet
juristischen
##ünkt
erfinder
riesige
gän
##class
å
##reift
gefährliche
verleihung
dringen
##pte
##yright
vorgang
##genannten
echter
österreicher
##utes
gegenzug
entsprach
##cho
halbes
enthielt
ursula
lv
ing
fj
endspiel
finanzminister
##jährlich
bakterien
jahrtau
lettland
evolution
erziehungs
beend
rotterdam
##load
##kommissar
reduzierung
##umpe
reinen
bonner
monatlich
gesetzliche
##";
##reh
verkäufer
##ierender
unentschieden
bvt
radi
vernachl
crist
sprech
buenos
möchtest
##achusetts
ausweitung
komplexe
supermarkt
##materialien
##häus
##spitz
krankheits
fortsetzen
sav
broad
##oda
##wertes
##flich
borg
##bezogenen
baus
##üchtern
quoten
##/09/16
boris
verfl
geringfü
straßenverkehr
##beauftragten
##massen
##tagessen
##aube
##winter
hauptstraße
beschaffen
featur
##intens
##erbe
erschö
jahresende
##steam
villingen
##ochem
koblenz
erkrankungen
##irs
##ämmen
##pler
/></
turin
mittelfrist
fotografie
identifizieren
feinde
genuss
##kenntnisse
takt
testament
bargeld
bata
4,5
inser
##cto
ezb
##verschmutzung
1868
##nehmlich
##enr
jas
umgest
##positionen
unger
traditionen
##zucker
gesunken
##gebend
##spolitische
niederlagen
##bai
verhandlungs
##behin
erforschung
##berufen
unterschrieb
ero
##rente
hits
übung
abteilungen
##deutet
offensiv
##fst
##ollt
fox
abstamm
schwarzer
##then
lacht
lehen
professionellen
ibu
überwie
##atives
damm
munition
ferrari
anmerkung
1840
anre
mancher
jemandem
magd
empfangs
elizabeth
##schlaf
flexibl
→
demselben
binnenmarktes
##iene
annäh
##frequenz
entfallen
russlands
kv
coburg
##ík
##maus
1867
1884
kurfürst
dc
##mädchen
katastrophe
lernt
sätze
##beihilfen
hsv
bauf
tränen
hellen
##ophon
nachhaltigen
ehrenamtlichen
schwerpunkte
##diese
aufklär
interviews
lieferanten
##ergebnis
wisst
schwieger
burk
##ärkt
##wertungs
##orp
sciences
##leutnant
tischtennis
##lg
vertie
norwegischen
##ocaust
(11)
##gift
##einzel
##ämtern
##eli
##pur
##%,
andy
fügte
##lock
entspannung
##gelernt
kay
nützlich
monika
bernard
uefa
bergl
intensive
nächster
behinderte
läufer
publikums
##sozial
weltraum
aktiviert
umbringen
derweil
coup
beseitigen
hyper
gelingen
##bruder
philip
deines
bc
##20;
##ersdorf
darstellungen
behandel
elect
##hiop
+33
denselben
##zenzen
brauchte
pein
valencia
datiert
philadelphia
byz
sax
sanierungs
mitternacht
##/91
atelier
zigaretten
klimaschutz
##pse
##müller
shang
bün
##ilder
##mei
absolvieren
##artiger
##elta
##foe
##änk
genauen
zuhörer
##mitgliedstaaten
symph
##kontroll
##kontrollen
##tius
##article
##mäßiger
##ächse
##platzes
korea
##udad
wiese
##iniert
##schatz
planet
##mittee
begegnungen
scheiben
##modul
##abriken
tjf
haag
tiroler
regiment
kette
arr
##schke
beu
investor
1815
##vik
vermehrt
##schon
memor
haushalten
zunehmenden
##feind
überschw
organisations
##räu
##ämpft
libr
tageszeitung
##helfer
santi
praktiken
taiwan
merz
zinss
ausgewogen
##2005
marsh
daimler
airlines
6-
beantwortet
##-07
##rob
##orger
badminton
1872
beerd
jubiläums
320
##bourne
tir
##unterkunft
1873
qualifiziert
##zm
##dle
ermäch
gegliedert
umlauf
mittagessen
fm
erforderliche
##krist
ausgra
wesentlicher
3:
dissertation
##ianische
sees
##ligist
huber
##consultants
achtelfinale
pflegen
##istenten
##reife
unnö
##selbst
##ssitzung
indian
##hv
gesetzlich
eingenommen
kum
geschenkt
zustimmen
beendigung
##cop
##werfer
zeugnis
werkzeuge
##international
##schnei
sensibil
##cret
flüge
##onische
vegas
kessel
ix
lebensraum
motivation
miller
rebellen
lg
##source
##vorschläge
##anks
19-
##fälischen
##bran
##rien
träume
ruhigen
schief
kav
sonna
obdach
charter
##engt
vizemeister
erfassen
erweiterten
amarillas
resultat
hertha
gruben
eingebunden
280
bezugs
fette
kritischen
durchs
anmelden
##dingen
pech
pfe
##blank
##erhalt
achte
rüber
reflex
kennzeichen
prozeß
lehrerin
20:00
eein
##schritt
##worte
angebaut
187
gänz
vergiss
chan
umstand
jane
paradies
provisor
passagier
##rb
need
01,
satzung
##zubringen
tin
aussen
vamp
wilhelms
obergeschoss
hole
behält
treppe
effekte
schülerinnen
##umping
##tätigkeit
athl
volleyball
anweisungen
##fse
henri
##ungsbestimmungen
##zb
##9€
##ctions
lehnt
rasse
rehabil
##mans
pilger
ibe
grob
##pin
hack
angestellt
belastet
##ichern
applaus
verleger
ausgebil
älterer
herzogtum
##tests
taucht
hartmann
angemessene
##spuren
lhr
ausflüge
##point
exeku
ressort
##manuel
beruhigen
260
##autobahn
##jung
befrie
##seitigen
anzubieten
uf
##zerne
chinas
briefwechsel
##2003
beseitigt
kostenlosen
17:00
year
##wiese
##wirtschaf
lebensgefähr
##reichung
meistertitel
regime
##abgeordneten
erben
loy
unterrichtete
##garde
emir
islamischen
denkbar
##1.3.
##css
oxford
##sprozesse
##historiker
zon
hinzufügen
versichert
ash
freigegeben
##arien
##admin
##henden
überregion
##oge
akademischen
marmor
ulm
apostol
##gewinnung
widmen
rechtlich
schlosses
gäng
griechisch
##jas
want
##glicher
südliche
erscheinungs
##klam
##defiz
##lling
beeindruck
##10)
##cit
four
arschl
##emonie
dünn
dozent
körpers
zelle
anwesenden
technologische
clemens
geschicht
beurteilen
asl
bewältigen
california
##videos
##amarilla
bemerkungen
demnächst
##amenten
##berechtigten
aufweist
kabar
(2),
mose
ofen
##103
putz
##ennetz
gesand
##western
zentren
chap
aufruf
freuden
##ffizienten
terminal
skige
liquid
geschätz
).
grabst
177
##court
##itiert
füßen
rückte
sexuellen
##beide
schriftliche
bann
dial
##riv
##bewegungen
##:0)
##ertorico
##spflicht
geflügel
juristische
teppich
eberhard
hend
angeführt
(189
hirn
##cond
eintreten
##puertorico
grundstücks
mängel
arte
blech
alltags
konfess
räumlichkeiten
##zeilen
##fizierung
##uda
##arry
vorgeschlagenen
1883
welch
##brecher
moos
breslau
##schreibungen
wohnte
entwickler
##beton
##shö
elbe
##kün
zieh
lokomotiven
invas
##schlacht
pennsylvania
##hälfte
fifa
kitz
blum
agenda
jahn
##sperrt
##core
(197
verborgen
##aufgabe
##gesundheit
revier
goldmedaille
rl
host
##pakt
##ächsische
beschränkungen
popular
são
##ystems
##störungen
verschaffen
1881
thüringer
179
längs
kohlenstoff
gefährlicher
geflü
##enix
##begriffs
untertitel
(50
+39
##führerin
anle
proteste
##vereinbarung
herausfinden
##palast
konter
gewünschten
beer
health
autorität
kriminalität
##(3
##aal
wille
massiven
abtei
besonderheiten
##)-
##kongress
erwähnte
einsetz
##rp
##masse
reiten
wri
##konfl
##zweige
11:00
##schmerzen
rené
samstagabend
lucas
frühstücksb
gescheitert
yacht
energy
1876
redakteur
##/90
##icip
falken
hinteren
##hib
##landkreis
##flüsse
verfilm
##alla
##viert
##große
thal
engineering
50.000
ausdehnung
haushaltsplan
anwender
subs
segen
##skar
##brachte
angestellte
hero
paare
innovationen
##xie
ruß
wette
gros
##skirchen
skandal
strategischen
übereinkommens
schaum
tc
anhäng
komisch
lsa
print
ausführlich
##höhung
##ihr
mot
##alben
##stellter
entspringt
##illo
äußerungen
bunt
kindert
interessierten
1882
freizüg
##rup
##]]
##werbung
abges
carlo
marburg
##/96
sier
##anschlag
menschenrechts
emma
hörst
liebsten
logo
steigenden
wüs
##beauftragte
massive
##benz
beha
stammende
lenn
treibt
elementen
##stellbar
##mul
2003,
umfassend
##architektur
gegeneinander
pünkt
##/100
tech
peters
##faser
meier
handwerks
allgemeiner
raw
wütend
ses
##ström
entz
betonen
reporter
indonesien
zuwachs
##kontakt
marathon
##/11/
fres
erwies
##hw
##ères
lay
saat
than
entstandene
holding
standes
treffpunkt
##py
scheiden
##fischer
emo
##zusch
##owitz
##seitige
bundesländern
##rator
errang
tyr
hexen
foundation
##eigent
##integr
komplexen
##eing
##indik
behaupt
##cell
cloud
rohstoffe
technologischen
pulver
sammler
douglas
gegessen
zulassen
copyright
##nchen
kt
gerichtshofes
irrt
##aring
##spläne
myster
telefonnummer
defizit
erfolgreichsten
##ancy
nee
daddy
begegnet
##debüt
deutlichen
##ité
bearbeiten
1830
offer
##preisen
##skom
##sicherheits
##oka
##uffet
175
fabian
00:00
begleitete
##fuhren
irgendein
kennengelernt
erwär
erstaus
##ungel
befugnisse
##kapazität
##rador
##ultan
##gewerk
order
##äuber
darauffolgenden
##skop
formular
kameras
##="_
asche
süße
##gue
eingliederung
nw
forme
marion
##usse
##greif
erfolgreicher
gedenkt
hofmann
vergangene
cia
böden
titan
auswählen
innenhof
irgendwelche
qualifikationen
##abor
luzern
zeitlich
blickt
184
herd
firm
zehnten
sinfon
##geladen
idiot
raten
einbau
gärtner
colon
ström
tenn
##alitäten
stoffen
fv
nutzten
fire
##gp
##lou
flut
lenk
##heide
##genstein
innenraum
russischer
##lot
dresdner
##+2
##opping
##197
schätzt
auffällig
unverzüglich
##protokoll
##recken
leidet
christliche
##abis
kasse
##anfang
fängt
westeurop
##dol
##weißen
##1993
vorträge
##has
##nummern
episoden
##kass
etabliert
##weltcup
teilzunehmen
##gewe
happy
##schullehrer
##krankungen
überwacht
eingeschlossen
begleiter
##steilnehmer
##änzen
##mf
##gitar
##anteile
indianer
##ftiger
eurer
improvis
##(200
1849
##leister
tig
must
verwiesen
tub
##freundlich
eit
entfernten
##ocht
fürchten
##chffffff
##eilung
##fellos
hospital
gebirgs
beratungen
##oor
##ural
lorenz
##cti
flüsse
##wechseln
verabschiedete
vik
direkter
kiss
erzeugnis
erwe
haken
friend
##alk
##–16
(12)
sünden
neujahr
beinhalten
##ogo
kei
flecken
zeilen
beantrag
außenhandel
unterzeichnung
##ktische
dominik
holocaust
##icy
äqu
army
clar
bekomme
härte
artillerie
##walde
ostern
sterbe
##edn
viermal
zeitplan
##flotte
fliegt
sozialpolitik
skiz
##hell
trage
##mak
buck
##emar
##kommando
pac
gelte
gewünscht
badewanne
##etl
##lief
##zza
consult
##jw
asu
skandinav
diebstahl
##fund
zugangs
silbermedaille
pilz
holger
gänzlich
wilde
vs
unmittelbaren
gelbe
sammlungen
casino
besuchten
feed
unangen
führerschein
##dium
##gige
impressum
umsetzen
##iftet
##1991
market
oc
##mere
trainieren
anzug
wolfr
beibehalten
schütz
##ape
##liebt
überwäl
##wü
rückläuf
##but
problems
finnischen
turner
community
##kritik
lip
aufgeführten
jonathan
##hire
##technische
##bp
##zia
##auflage
hongkong
abkürzung
automatische
maas
##lieder
äußere
##hout
zeitalter
ahn
heller
konzentrations
##blö
##-14
teurer
föderation
##demann
##gesang
meteor
zählten
##%25
1861
italiener
verbreitete
reiner
verschlossen
##nahe
gewusst
kompletten
##kart
dh
##bewohner
##cro
dl
ward
verpflichten
rig
stru
einnahme
legislatur
##yan
##40.
angesch
##ahles
affäre
komödie
versandkosten
##sletter
heirat
steinen
dieselben
rentner
spart
gletscher
treiber
gig
1878
101
stadium
verdanken
##ätte
nördliche
hauptmann
tsg
paderborn
##aterial
arist
##loh
##png
wähl
##ümern
rank
##rv
dru
spanier
##schiffen
##wirtschaften
kran
deutet
hinunter
##sammlungen
ausgleichs
schottischen
sozialpartner
##rote
spaniens
bedarfs
hz
##allee
##track
beheben
lebendig
erpro
##spiels
##apo
##berechtigt
zurückgezogen
##ovis
ahr
eingemeindet
##minuten
frischen
vgl
##cou
##kapitel
garage
##ungsort
orientiert
sug
rückseite
17-
orthodo
##idad
ohio
hasen
##erw
##ña
##hac
morgan
diözese
ihrerseits
bbc
verlob
##gess
inspiriert
##gene
ausschlag
sonnabend
##ffekte
zweifellos
passende
##xs
wasserstoff
dö
rho
weihnachtsmarkt
##1989
##flugzeug
gefärbt
hav
##ieder
##rec
##biss
miete
1851
##kamera
rhythmus
dag
wohlstand
landesliga
##ümm
##achtal
##faden
fachwerk
select
stirn
françois
crew
inde
##übergreifen
erleb
##grat
abteilungs
##sprojekte
freundes
unterhält
##automaten
anzeichen
##ctic
warnte
##ßung
betreffende
##'.
weitaus
1,6
##rüstungen
##/97
rele
50.
##agent
ecken
vereinf
dax
hoheits
##gespräche
demonstranten
##konzer
stößt
vorherige
nutzungs
abwesen
angetrieben
verwandt
##game
##umsatz
bürgerlichen
tari
bedauer
maßstab
explosion
mick
##schrän
fester
##beste
schwung
konsequent
##sektors
überreste
unterdessen
raumfahrt
##lem
verteidigt
##hna
getrieben
##bstoff
beten
vorgesehene
aa
##heid
politiken
della
##noch
tägliche
gps
##schreitenden
kontrast
##matt
##arisch
reibungs
##emissionen
##steigerung
fehlenden
(196
eingriff
gewartet
##srats
vornehmen
##lebnis
##risiko
woiwodschaft
word
##chtig
mind
wirkungen
olympische
erfordern
##zutragen
##cca
erzieher
tätigkeits
erschienenen
40-
restauriert
##kd
##amento
meinungen
orchestra
##mik
##drücke
##gewalt
##eiermark
##feed
##grab
nürnberger
harz
gallery
sektors
##spektor
##mittelte
fuer
erläuterungen
autonomen
ralph
##beschrän
##geschwind
##drama
irgen
etagen
dil
1862
jama
vorderen
lach
##ennungs
unbekannter
knall
tower
frost
##sonntag
mitwirkung
erachten
miami
##xn
made
widmet
##rap
fügt
punk
##action
visit
brill
##neues
gnaden
doll
##/12/
##gerichte
##hän
##nae
stammten
hindernisse
rhe
##mäßigkeit
klassiker
gelder
urkunden
##infe
ermittlungs
##issa
lippen
verschul
woraufhin
##rez
1865
##(0)
stören
minderheit
uas
##urteil
##schwarz
definieren
##sprüchen
substanzen
1869
elec
südkore
##klima
##metter
stone
indire
zugehörigkeit
##wurfs
hebt
fleiß
gutem
anmerkungen
lichter
musikern
befestigt
##setzungs
zeile
angehören
gemarkung
##schwester
hül
jahreszeit
##sed
tox
16:00
spielfilm
##instituts
jahresbericht
hj
diesjährigen
control
geistigen
ade
satt
##major
exklusiv
wartung
fächer
##nac
##sere
##bringt
dörfern
grundle
propheten
botan
findest
##dische
##hua
##feldern
kommerziellen
##herine
verzeihung
laien
##gebäudes
##aha
ernährungs
##ähle
elef
tödlich
##hatt
pent
##strafen
senator
benötigten
sprit
##aman
(*)
##elektron
gedenken
##-7
##gelb
reb
hohl
xvi
baureihe
##kri
ojdiu
ordentlich
ehrenamtlich
##zimmern
##pps
wart
verfasser
landgemeinde
##etze
##börse
##euungs
zens
doppelte
##zenen
stadtwerke
##oly
schuljahr
umwandlung
##olade
angef
überwachungs
##cean
%).
unzufrieden
##schalter
aufstiegs
bemerkenswert
##edy
konf
amph
übte
schädel
##hoe
pedro
##icus
##ansas
qualifizieren
geschenke
verschwindet
gehörenden
währungsunion
2.0
konstant
produktionen
maier
anführer
##apa
klappe
1864
erzählung
##sy
ves
##lande
1877
expert
hip
##usten
genießt
kopie
vorgetragen
##wirtschaftung
##erium
##rungen
moll
berufe
##altern
display
##hringen
klassenerhalt
(49
##detwas
einbruch
gedruckt
massachusetts
##gängig
spreche
nahles
rezeption
zentraler
ausgedrückt
##bill
##großen
##herd
##ping
##static
unterscheidung
##hmer
reut
howard
side
angesetzt
cow
freibad
schenken
feuerwehren
leistet
rov
bundeskanzlerin
##resp
pseudon
argumente
nachweisen
##-18
##golf
adl
aud
##leiden
antisemitismus
mum
missbrauch
parti
aufschwung
elite
##verbänden
anreise
##tax
##laus
##konzentr
vermuten
festhalten
##endo
narren
weinen
wurzel
medium
reagierte
conference
geschäften
flughäfen
##np
##umfang
verblei
rag
##spezifische
##gun
##tures
päpst
##wälder
##pertoire
sammelte
herrschte
android
50%
##160
namib
behielt
entertainment
pater
##oppt
verstoßen
redner
##risch
konditionen
ringen
##tierungs
tollen
abwechslungs
libanon
##wit
fürchte
committee
##bike
##theorie
">
verpackung
edin
verkauften
##2004
##ständnis
irgendetwas
politisches
##kamen
##known
##,000
kelly
verrät
abbruch
cyber
litau
weinbau
babys
verkündet
misstr
nationalspieler
##fp
weltweite
##tauscht
##assistent
lobby
##kriterien
expliz
sicherstellen
beliebten
panik
##haltestelle
lateinamerika
vollem
network
tatsächliche
["
##över
##räumt
##gesetze
projektes
##chf
##ssysteme
kahl
intensiver
mehl
achter
##iva
##malt
bibl
kräften
luftwaffe
jap
##zündung
beantragen
liefen
##mem
##spoten
##wing
1.1.
einwei
##stau
##shaber
15:00
##andert
prüft
vorrangig
##eux
christina
##ints
##ehrte
grön
##omenkl
petrus
durchgesetzt
##kohlen
udssr
verbliebenen
##cih
##fei
grande
benötigte
lil
abu
ryan
überlebt
prince
guy
sandra
moderator
gleichwohl
##lässt
temp
hosen
project
##1992
##metal
##ands
155
##atus
##johann
##08.2015
momente
##inchen
##kassen
##cw
##uttle
welten
##amarillaslat
kreativität
eff
türken
rim
##lime
prävention
##lob
##ifer
makro
realisierung
##gren
##fernsehen
konvergenz
##alles
##schuk
##fielen
treib
sponsoren
baumwolle
rollstuhl
auswirken
gefährlichen
##nell
mazed
dankte
##atischer
geg
bent
##einigung
geistlichen
spende
qualitativ
bedürfnissen
sechste
##chin
##esischen
basierend
erhebungen
##sperson
klapp
buches
zirkus
gefecht
philippinen
anthony
pé
anthrop
geforder
derzeitige
bars
μ
soul
zeig
blicken
spontan
shin
steigende
##ftet
experte
##kara
avenue
jochen
störung
erbaute
entnehmen
##prei
##psis
##ssicherheit
tunesien
besiedelt
anzupassen
zimmermann
##-12-
gehor
##fläch
##honduras
##zeugnis
##tchen
kraftwerk
schwächen
boule
erhaltene
tm
##zutreten
sna
##2006,
kaufmän
##sprozesses
haltestelle
werd
dw
##mögliche
erschlossen
##zahn
##felde
##praxis
##geschen
##-25
low
##sprinzip
künstlers
##freude
warnen
lug
aufger
scherz
gegenseitige
weißer
(13)
silvester
relevanten
##ingo
geschick
##ized
begrüßte
eroberung
gy
tiger
(=
('
##herapie
##xb
beeinträchtigt
bürgerkrieg
##oba
##eitig
##pfarr
inhaltlich
array
##osop
##opro
künstliche
##bäume
kovac
redest
##jap
##sprobleme
luftfeu
bürokrat
dete
skep
rational
danny
weitem
##vok
mongol
##ardt
nicole
vorläufigen
##pb
##nea
zwill
anleitung
stoßen
bezahlung
30.000
afro
appartement
harb
landschaften
##aska
##minü
123
2012.
erwin
basieren
fahrten
timo
erkund
##sun
arbeitslose
##sees
##itat
##commod
##zukommen
kulturg
commer
gebrauchs
vorläufig
##sfeld
##wangen
maast
##konto
gemischten
ergaben
zuschüsse
##projekten
##-04-
dall
beheima
flank
##guia
vot
leise
##pfleger
absoluten
gelben
löff
gewässern
nba
##gemacht
verlieh
##france
##provinz
veränderte
spaziergang
zölle
##büchern
##aufkommen
rohstoff
&#8
##malerei
gard
margaret
##bewusstsein
tötet
kosovo
marsei
variablen
gewerkschafts
##betriebnahme
##hra
senkung
##sitzung
stützt
kolumbien
##ción
1,3
aufsehen
verdammte
präzise
interessenten
##messung
obligator
entlastung
zutaten
informierte
##sec
##inth
##ikanten
beacht
lak
##vet
bodensee
potential
disziplinen
##üttern
schwefel
##ierendes
##omon
##fasern
gesonder
##orph
volkspartei
##brid
menü
möge
abstammung
leere
kompens
ampel
villen
##sonder
zwecken
##ausen
intra
title
##koordin
##thal
vorrunde
##ühl
kanzlei
##-"
kühn
kommend
hing
prominente
ou
##braum
amerikanischer
##farb
abzug
dachau
bewirkt
bayreuth
ausgeliefert
kompositionen
kolonie
##warte
spannungs
balkan
hilfreich
##skrie
##futter
##ilding
##...)
nackt
wn
001
vergrößert
##heu
##cation
##führers
regisse
##exkl
allah
##usste
urteils
transparen
bridge
einnehmen
illinois
##ografischen
ler
##keine
##sho
gespannt
1600
furt
##findung
atlantik
entnommen
##:6
gitter
##öntgen
fazit
drucken
gedanke
debatten
bedeutender
##schütze
nordsee
winterspielen
##neuen
virtu
##amerikaner
(187
vertret
fernsehserie
would
vorherr
##idsch
##ierst
bvdi
euratom
krypt
##pas
festgesetzt
pes
##queren
anker
arrang
##erklärung
neckar
##gz
warmen
drängen
gewarnt
haw
mantel
schwerin
rekonstru
fahre
##té
##kut
toiletten
abmessungen
sachschaden
##jut
##/08/
##abbau
casa
##product
beabsichtigt
annähernd
tb
bewerbung
teilnehmenden
##kant
##element
##äen
##lation
historischer
kaiserlichen
650
bestritten
##angelegen
straftaten
##schützer
dv
revol
##haftung
ansprechen
##alena
##kretariat
versicherungen
vereinfach
mitgebracht
beschriebenen
terrorismus
internetseite
langfristigen
bundestagswahl
körperliche
verwirklicht
##pic
sportlich
großmutter
##krieges
##offizier
hydraul
##arning
saarbrücken
##quet
santiago
spannende
dreißigjährigen
##-01-
##debatte
##aktive
vollendung
aw
##kreu
eingebracht
##empfänger
reinigungs
##ünn
##black
##anzlei
realisieren
persönlicher
550
schim
einzie
kiew
sales
platzierung
##fahn
äthiop
verknüpft
##iak
ebi
befasste
erkunden
streben
22-
erleichterung
malays
##rechnungen
guard
ladung
oblast
##charakter
autovermietung
epa
öle
##orientierte
segment
verfehl
##andro
boliv
übungs
geschäftsjahr
asch
ausprob
starkes
##road
##stheorie
##pie
##inkl
releg
stationiert
versprach
konferenzen
kipp
resonanz
rechtsanw
efta
##begriffsklärung
derby
##folgung
spielzeug
merken
##aur
##lln
reale
direct
##rar
engagieren
##cycling
sua
##unus
##affen
hawa
rausch
##izer
##/2017
##defin
##vider
folgezeit
mexico
ohn
##parkplatz
sicherer
##”,
##{"
##spül
319
##café
hic
##iertem
geheimen
women
##sprozeß
bestandteile
mehrheitlich
##eri
##programmen
##ype
##beamte
##unterstützung
stimmten
bedienste
spielzeiten
verabschiedung
unterhaltungs
##katalog
herangezogen
##ändisch
kleinstadt
frühzeitig
eingreifen
oslo
sehn
xv
cfj
universal
nordirland
volksschule
##idi
pionier
##zehnt
##habana
##ietet
senats
gültigen
schweiß
mast
anschluß
##chefin
anerkannten
seltene
##ött
geziel
meldung
nordost
fjof
festzulegen
##/24
vall
spahn
gremien
vorfahren
palm
beschließt
syrischen
rechtsextrem
##skrä
genügt
übungen
##katholischen
monitor
wenigsten
häus
bezeichnungen
burn
ý
##host
fahrgäste
##gran
##mitz
##ochte
##krankheit
einträge
willy
##ritter
merkt
müsst
##stelligen
messungen
##üchtig
##vorsitz
##otr
##ündigen
beständ
episode
rr
wärst
##museums
castell
manusk
##erhebung
##stheater
dienstagabend
(11
##89)
family
rating
##dw
##dener
verdr
##aris
automo
lösungs
##brandenburg
##mechanismus
##besucher
bundestrainer
09:00
##beziehen
##feste
kompat
##enningen
##verleih
##auftritt
anpassen
fn
##schreitet
niederschläge
0:2
##-20
anten
apostel
gesellschafter
venezu
beauftragte
dreieck
mitteilen
##genehmigung
rumpf
##gil
##abgabe
##gerechte
##iy
range
##neum
verbündeten
##gelegenen
erwähnen
##esheim
##ulierung
##&#82
.48
##zeitigen
##lf
va
hsg
sünde
landratsamt
##bock
rah
##produzent
barr
##bearbeitung
illegalen
reife
®
neumarkt
verwaltungsrat
##aser
zugenommen
##abo
nordkore
erklärten
iwr
schulze
kostenloses
palä
##ituten
##uge
##ikes
##iley
##stuf
##vit
##informations
##knecht
alliance
##gis
umsch
##zek
##armen
##].
##/98
het
##schlus
böhmen
##küche
1863
##worben
erfreu
vermis
ausfall
fünfzehn
begriffen
##ture
folter
rug
##affäre
grauen
qm
##zumachen
seminare
##sung
karos
neo
##zegow
lücke
überdies
##lastet
verspät
algerien
grundstücke
##ualität
verbreiten
##=2
##phones
##stimmte
##verteidigung
dreharbeiten
bundesland
neuigkeiten
kuh
meldet
##eigenschaften
montiert
##bundesstaat
##life
alltä
kapazitäten
##dri
shanghai
lateinischen
##edo
##olith
tournee
##ady
##alus
frey
schafe
turb
##&#34;
##chang
till
hiermit
##lib
##otz
##hla
nil
wish
lächer
kleinste
##ängte
gesunde
##default
##bachs
angetan
überwachen
territorium
oden
##hew
##außer
##ographische
##21)
sowjetische
##wolf
eut
vorarl
vierter
annäherung
##sand
##anbau
quin
kolleginnen
wolff
##...?
statue
ritu
ortsk
##ymn
ausfallen
##2).
##add
##hro
##/80
udo
##ienne
beschließen
##össer
giebel
angeneh
impulse
ähm
schrecklich
##gets
downloads
karneval
hauptsitz
pazifik
##domin
##kuchen
##16)
trie
##——
spion
##oment
dunkelheit
##amas
hie
104
ringe
zwick
vorschrift
135
bewußt
lutz
anony
unterdrück
unbegrenz
dienstleistung
schwellen
14-
unterliegt
##ikalien
schwachen
schlangen
zah
mittwochabend
beitrags
indirekt
##stopp
bush
krefeld
lehrern
verließen
##ologisches
cum
gräber
geheiratet
##damm
sco
tast
##treffen
überaus
ansässigen
lehm
anhalt
##variante
klug
olympiasieger
case
##alais
said
grimm
tibet
stickstoff
gnu
preußische
oskar
sheriff
##areal
bobby
dirigent
problemlos
##sü
gespr
##gewässer
gesichts
##initiativen
##ible
zugeschrieben
##route
heben
geradezu
naturpark
derjenigen
2500
bruce
illegale
##störung
##chel
referend
ieb
hauptort
guer
bombe
pracht
drum
stoß
common
bestands
aussichten
haushaltsjahr
entwässer
##pier
nobel
anbindung
##_2
##ältin
vielfältigen
überschreiten
##zeile
##/22
bb
##speriode
ust
##beihilfe
schlange
##222;
twe
gehoben
majestät
2:2
verlegen
##beob
aufforderung
bekleidete
ereignissen
##tium
zukünftig
flan
##zwecken
schwache
leader
ballett
unterrichten
##zio
handbuch
4)
fac
illegal
muslime
montagabend
##neo
ausbr
##änglichen
##schlei
importe
einladen
behandlungs
ökologischen
##mittelten
##/2008
uraufführung
##%),
geruch
##sprodukt
##östen
##stimme
ländliche
logik
##kok
dolom
bahnen
##verleihung
##note
befahren
##ophil
münz
aspekten
##orm
ruhiger
bewaffneten
##gültig
humbold
abgeschafft
##mühlen
edelstahl
##dal
nak
##stermin
geliebt
güterverkehr
artist
wohnungsbau
109
einzigartigen
##jubil
elast
ingol
ausgezeichnete
nab
weizen
bewohnern
erstaunlich
vornehmlich
hergestellten
19:00
fischen
kreisstadt
##qs
deg
##russland
vielfältige
##sehbar
##yers
handt
betrüger
##label
(14)
breites
##mittelalter
##sin
empir
übergab
##sleitung
##sep
##lh
integrieren
unterzeichnete
##30-
##ises
##hemen
einschlägigen
full
##ppchen
##4),
##standes
adress
##üssig
##ulierte
dimens
kennenlernen
6000
ble
##-03-
liberalisierung
##:1)
##undeten
zertifik
##üttert
##regisseur
eisk
abgas
rückblick
jahrhunderten
##stark
rubrik
##5.)
21-
hervorgehoben
ekl
1806
denjenigen
##diu
##wärme
##kana
nina
röntgen
expansion
gläubigen
empfing
ehrgeiz
wiederer
forderten
path
##anzeiger
##katastrop
unsinn
unknown
mittlerer
faul
##technischen
abgelaufen
##yeong
nicol
klägerin
##strahlen
anderson
##ifi
1,4
arschloch
vernichten
vorzulegen
zurückgekehrt
nau
pyram
verhandelt
kriegt
flog
marin
faden
chore
##kalender
konflikten
##jy
##kategorie
geisel
skulptur
außerordentlich
nötige
übliche
##beschluss
##irken
##laubnis
genre
nervös
liedern
angehen
pis
##korps
2018.
##ursache
tempor
##begriffen
montreal
ahl
träumen
abschloss
##inär
##mandem
##leihe
wäldern
geschlossene
spor
semester
##ovice
bande
besiegte
wartungs
##school
anlegen
vereinbarten
deuten
brother
gebräuch
zueinander
jungfrau
##-11-
##ensem
##motiv
abermals
überlegt
schmetter
##iose
materie
bewirken
genossenschaft
ambul
vergeblich
trauben
ausgetauscht
##zulassen
eineinhalb
anteils
dominiert
slg
ruth
spiegelt
weiterzu
untersagt
##-06-
##olymp
comments
auskünfte
%),
teilung
gedeckt
rindfleisch
inszenierung
reichtum
unterschrieben
besorgnis
chief
festland
stammenden
##)",
##igl
ital
regierungschefs
schräg
##87)
mozart
papiere
marseille
aufstellen
heft
angeklagt
##jv
md
##herzo
schlepp
##omenklatur
kohäs
rebell
##paul
vorläufer
uv
haufen
##ressourcen
parlamentar
publikation
103
relevanz
##rosen
##olis
##iolab
##neburg
##zc
##iveaus
##inland
separat
nac
##semester
nis
bruders
##search
##btt
19.30
wählt
ems
##bezirke
einflüsse
lothar
flexibel
bap
chau
stanley
##ylon
explod
ausgewählte
##rose
2015-
begeistern
##kra
renault
##quen
roter
auschwitz
##schle
##effekt
camer
zielt
rust
##staatliche
##spap
herrmann
zusamment
konzentrierte
##nue
##kampagne
##training
martina
##jg
##kino
organisatoren
klubs
rv
grube
kündigt
verwaltungen
##utenant
##handwerk
kamp
ž
##mahl
##tile
gesichter
rodr
erwägung
township
viii
freizügigkeit
stroh
protestan
##++
mächtigen
##bels
##partnern
grundwasser
##jetzt
##packt
##inkt
donnerstagabend
pp
zuverlässig
##4;
##olt
##leid
schützt
##enkt
drohte
abwesenheit
##27/
##konkur
bsc
(186
pink
##-08-
item
2017.
birgit
niemandem
##regiolab
belagerung
##tom
kfz
ära
##fassade
municip
##richtlinien
vorläufige
tei
#5
nagel
brüdern
tommy
befragt
zollern
mitbegründer
3:2
bah
##derungs
belgische
##----
##olds
##kranz
##voraus
stämme
##/01/
##junioren
magazine
##ständiges
##!)
enorme
überle
kulinar
entspannt
##konsum
##eignet
##20)
##agner
108
glocke
##gewichts
##würde
1856
##attungen
##angriffe
ukrainischen
##tika
week
sparkassen
kirchlichen
##find
##bohr
"?
geschäd
interpretiert
sms
take
netzwerke
riss
heter
##&#8220;
##akon
##ío
philippe
##verfassungs
algor
##timer
##ield
##maria
katholiken
armuts
gordon
content
erachtens
##hielten
brigade
mehrheits
eiw
charme
lagerung
zuliefer
mittags
iew
fasst
rekru
##stube
1400
lena
blumenstr
##würdigkeit
##ssel
bunten
##éd
petro
##allerie
##moor
verzicht
schlimmsten
##zzo
galer
genua
klappt
regener
zukommen
##otherap
verweisen
##ktop
##een
verwirklichen
aufzeichnungen
resultate
quadratmetern
kubik
hindurch
tatverdäch
cem
gitarren
gegebenheiten
##edr
2.000
geform
##wirtschaftlichen
##aton
nebenbei
kollektiv
##oft
infektion
neumann
eer
##tains
verabschieden
hopp
##download
##15)
##öck
##pulver
abgelegt
garde
111
##ässen
plas
apoll
death
##tochter
jüngst
romane
drucker
prognose
guide
siegel
##bull
eingeräumt
##kugel
##nette
##aufenthalt
cfs
##gia
inwieweit
bekannteste
##sieur
betrachtung
lebensqualität
skel
flugplatz
##komponenten
100-
rapp
##schiffs
##ländische
#4
##wird
ehrenamtliche
##/26
##sbürger
schwaben
scheidung
##gur
eingetreten
##umer
scham
1,8
gestärkt
tz
vorbehalt
zeichnung
aktiver
vereinzelt
bestände
birken
##vormittag
kompliziert
passau
passend
schildert
begrenzte
bewerben
jugendlicher
##telang
##versionen
etablieren
zuverlässigkeit
10%
femin
unüber
berät
biologischen
ertr
rights
versöhn
esc
nachlass
wanderung
102
gron
##spielte
vollzogen
beschlagnahm
dave
verfolgte
bundesländer
entsprechender
burschen
##rise
##gingen
##herzogt
unsicht
hoffnungen
alpha
gegenseitigen
106
pix
##bling
##osion
short
##stecken
##doc
scheibe
vorgelegten
höherer
autonomie
##ceae
hose
dress
##hom
engländer
hebrä
##verbote
nieren
höchster
derjenige
wenngleich
##betracht
vernichtet
seels
1859
antrat
zusammenzu
emissionen
geschnitten
ausreichende
singles
hft
##erten
##ströme
joint
##vari
absur
##älern
##roit
##schend
emotionen
vorzunehmen
##lm
##wang
##chnik
##ching
##opath
slaw
stri
fokuss
##egn
##had
siedler
##ätten
puls
comeback
##oney
record
janeiro
flensburg
bewohnt
##kompetenz
paulo
cottbus
vorzubereiten
drinnen
verzichtete
ρ
dy
##spers
##gewehr
##enta
##europe
psycho
theoretisch
##maxim
bestraft
##duktion
gebürtige
nachteile
ruhm
##him
2010.
toleranz
##kühl
ermord
##heraus
vollstre
##avw
parlam
beschützen
sri
löhne
##google
dschungel
geringere
prima
388
pfeffer
anwenden
schmalen
stahlindustrie
##vall
##netzwerk
kreb
##blumen
nou
hourly
##ouri
ankn
##gate
harvard
ego
zürcher
##5€
mainzer
##fertigte
abschnitte
anbetracht
##""
##reu
##02:00
##denberg
##haltes
zugeteilt
brennstoff
herkömmlichen
roche
##mündung
##salon
anzutreffen
zurückhalten
##more
##azz
##äuren
wassers
department
dicken
##cock
halber
sizilien
##exe
##sbil
##wild
jahrestag
unschul
trockenen
##hmin
rib
##ämpfer
##anwendungen
hud
wöchentlich
##haltige
angebotenen
südseite
israelische
verteidigte
elt
##seher
##jur
##igter
modif
cultur
ausgestattete
##orb
##fair
anonym
inbetriebnahme
##regierungs
zap
ariz
fantasie
exo
##also
##+02:00
##commodation
##ändes
edit
##wochenende
verhandeln
##ologin
##ockt
##glück
ear
isch
erzählungen
##kein
##uage
grundriss
freiherr
geräusch
kennzeichnung
##äqu
##chlor
hipp
bände
##regungen
propaganda
##bata
days
sofia
zweieinhalb
##amarillasaust
##hunde
##fitness
##strategien
votes
##institutionen
puppen
##fta
minen
neuzeit
systematisch
nikola
chefredakteur
gerüchte
floh
##meisters
spruch
zylinder
bundesamt
beobachtungs
html
fülle
fortbildung
sb
kronen
marshall
cruz
32-
bedienung
napoleon
##regelungen
prozentsatz
herausragende
conrad
personenverkehr
112
madame
albanien
##scheine
ür
nice
cho
toni
##articles
much
##wappen
ausmachen
7,5
gerechtfertigt
##iffen
kaka
bundespolizei
##ône
heiko
apa
##opter
gewehr
sozusagen
beherrscht
##dringen
schläger
biologische
innovativen
##mc
(0,
bullen
schumacher
koordination
gesamtheit
##700
##iday
amüs
bügel
##radition
abgesagt
mitteleuropa
kã
ankommen
einkaufen
hp
meg
spürbar
verschiedensten
abweichungen
##gov
ruhen
helle
##nde
bd
##ikum
##robo
gesprächs
zentimetern
neunten
270
flora
##ungssystem
königsberg
spezialisten
teilchen
einbringen
minimal
studierende
##ungsbed
geführten
jenes
##wärter
schlagzeuger
jason
iwe
gütern
verleiht
vorliegende
hänge
tatsachen
malen
14:00
neueste
schokolade
nelson
glaubte
affen
##vertrauen
000€
palette
spanischer
##nachfrage
schreibtisch
##occ
1803
kurve
angewandte
##-16
inneh
gabrie
ungünst
beun
agenten
koordinaten
##hfo
franco
ermordung
offiziere
länderspiel
nico
##lichkeits
besiegt
dauerhafte
behr
ferne
##tierter
ausnahm
##hansa
abstimmen
##arius
chal
duft
beobachtungen
##md
##otes
wunderschönen
eddie
spielplatz
##gv
03.01.
(1,
ruck
humboldt
##dipl
##gebenden
angehört
optimierung
füll
##insbesondere
mechanische
carsten
kris
unerl
erörtert
racing
identif
baustellen
##8.)
##brot
datenbanken
dreit
##unterschied
##10,
##vence
weltrang
buß
gesamts
konzerten
##(3)
fassaden
uc
##weihn
harm
##bution
lausanne
aufnahm
caroline
währungen
ngc
into
lagern
abnehmen
boll
##lud
##ications
newsletter
verantwortungs
dul
kob
##itischen
kräuter
gewechselt
385
olivenöl
seo
##polen
zähler
##rev
##objekt
##unds
nordischen
rahmenprogramm
befehle
dachten
##stige
ereignete
##büne
nix
##unterlagen
##esprecher
wdr
##netes
bolog
erschließung
beschleunigen
zurückgegangen
##­,
##jem
angriffs
pow
mohammed
vorgänge
ira
zoneid
fussball
analysieren
##angabe
##lv
toy
ruinen
##zd
##geburt
balken
##anzu
greifs
dorothe
probieren
bürgerschaft
karibik
verbandes
##free
##spun
##öhr
##müll
loren
weimarer
bris
helene
##ographischen
##enturm
erschaffen
melde
##blogspot
dezentr
gasthaus
##eistung
##spflege
##blättern
entführt
websites
übersehen
##grid
390
özil
präfektur
öffentlichkeits
##oldaten
heilbronn
##uta
##tw
village
piraten
##izza
gesetzgeber
##39)
##leich
abgesetzt
aden
mitmachen
##/23
ava
##kleid
ausführen
formation
rc
##viron
anja
kerzen
königlich
##active
##iron
bindung
protein
staatlich
berechnungen
2014.
##ological
bremsen
aggressiv
##melde
##quenzen
bens
warnung
commission
belle
kurfürsten
##schehen
galten
sekundär
bak
dean
ausgefallen
chlor
einschränkung
geschaffenen
geographische
##schuh
##kritiker
ansässig
gesendet
verdächtigen
cheft
monsieur
minnes
quantit
##richtungs
mechanismen
##anstalten
belasten
##äßlich
gebirge
mußte
verheira
##nez
##stone
tausch
stammes
where
##rence
##ografische
pharmazeu
geringeren
betrugs
porzell
signale
narr
flachen
töl
skis
aufgetreten
mobilen
##dring
##tarif
institutionelle
##lb
##kehrte
edinburgh
dessau
zwangsl
anfänglich
rechnungshof
##tilater
brigitte
befürchten
(60
überzeug
inval
allesamt
knü
möglicher
finanzieller
nations
##afrika
gehmin
entwürfe
bott
2011.
kurven
manifest
quartier
waschmaschine
heftigen
steven
passenden
existierte
vergrößern
werben
á
alfon
diskon
##würdigen
gitarrist
##ados
peer
anleihen
183
##graph
liebhaber
prozesses
multipl
##istisches
wohlhaben
resort
schwäche
sond
##hauptmann
zuschlag
freistaat
##enen
entschädigung
maaßen
châ
##ungsweise
naht
unvoll
eifers
vorangegangenen
##gitter
history
streiten
führe
##wör
informe
##cch
double
##marketing
festlegen
fulda
ökonomischen
##space
größeres
einstigen
impf
kredite
hinnehmen
abweichend
##ivalen
##währung
bruck
##zulernen
houston
uniform
kandidatur
rp
##feder
jemen
daheim
##jq
cost
##illons
räder
ikon
##spannt
##schmidt
entwarf
mediziner
alber
background
##wöch
sozio
rassen
##zegowina
##uo
##fran
eintreffen
##experte
##üsen
lh
exporte
##blen
geprägten
erarbeiten
##shi
second
##hahn
tall
##physik
jong
gay
##rechnungs
franziskus
##mbach
##experten
##ausstellungen
##stürmer
inflations
verkündete
##geordnete
gestoppt
##izid
köpfe
transit
königliche
gonz
reist
##uropäischen
lé
128
##gegenstände
selbständigen
##erner
navigation
##kolleg
##kämpfer
umfangreich
berufsbildungs
##glob
##bisch
luke
zugestimmt
kongo
vettel
##jar
##ckes
##spolizei
biologie
langsamer
bezirksliga
##emmt
##gelten
hygiene
auswärtigen
kostengünst
##skrank
##getriebe
entfernte
ersetzte
np
sonnenuntergang
##ehem
strenge
##effizienz
inserido
ausgearbeitet
40.
sierra
##mittlungs
esch
##sparungen
wortlaut
##flash
##vergabe
arrange
##spa
##ienen
##couver
riw
leck
pausen
ambien
pages
sumpf
##gestell
unions
23-
##ausrüstung
##jb
##generation
anwendbar
sortiment
##bod
15.000
zerstörer
##volles
##rike
heart
##stufung
kuppel
medical
empfängt
angehörte
einzuführen
verkehrsunfall
##behälter
##cept
##itzt
(3.
##ohr
sever
weiterbildungs
ck
29-
##osn
##verfolgung
##enken
eisb
befindliche
strukturiert
agb
cen
##qualifikation
##ulin
##atzer
hpa
##böden
preisträger
korb
##delung
breitband
java
räuber
migrations
repertoire
##ecke
##netze
##watch
##él
abgenommen
##ohen
gehminuten
kliniken
seltenen
schwing
bemerkte
regionalpolitik
##asing
erkenntnissen
##ehe
unterstützten
say
##0)
senk
arabische
barn
##drehen
vorlagen
administrador
maut
rajon
hindernis
verweigert
08:00
einheits
pam
pseudonym
##ites
phoenix
zwingend
##anim
etablierte
##duell
seitlich
##restaurant
modellen
dahl
schwangerschaft
##_3
##outh
##kespe
zaun
filiale
spezialitäten
bedeutendste
michigan
aneinander
aufbewahrt
renommierten
mitarbeiterin
gön
byzantin
aufgefallen
setze
benannten
##deutscher
##respond
schlagzeug
##izität
##gesundheits
225
diesbezüglich
##beer
ministeriums
valentin
##klop
##lü
jagen
dienststellen
canada
epoche
##fliegen
ähnlicher
##üchter
nette
klarheit
klimat
anmeldungen
unmittelbare
colonel
allgemeines
ordin
dialekt
nicolas
suchten
145
32.
##portion
##26/
fsv
adams
fellow
##egks
##nnen
zuschuss
zusätzlicher
ministerrat
1845
lanc
##vertrages
früherer
abgew
erfolgreichste
##haufen
##önen
eien
##lieferten
##helden
##schlug
grundlegend
##öll
(15)
klarer
ferienhäuser
töne
verlegte
##skontrolle
##berechtigung
komponierte
krön
zeitgenössische
sprü
drückt
arizona
french
komitee
empfunden
##ène
beunruh
##cie
ferienhaus
##ätzungen
netzwerken
##darlehen
verlängern
##tentwicklung
käme
##reck
tapfer
resolution
fahnen
favorit
nv
##ablo
ieen
tres
##hotels
symbole
intensiven
##uw
##wee
##uga
wüsten
##anj
##früchte
verkehrt
erwarteten
carter
eintritts
verschwand
##beutel
##katholische
umstrittenen
##klassigen
##ugt
sitzungs
##gard
##abstimmung
anpassungen
auer
berlins
schlugen
klop
##fahrern
schrauben
multilater
##ril
konsens
##edi
durchsuch
wurf
übersetzungen
einzigartig
##erste
##leppt
präpar
cannabis
math
disney
1300
whis
##ansatz
maßgeb
bestehe
##fassungen
zusammenfassen
##coln
aufl
##stitel
kleinsten
professur
ungeachtet
please
stiftungs
##marie
uran
##biegen
##vereinbarungen
waisen
aussteller
28-
hauptdarsteller
##würdige
##6.)
##dynam
spen
moschee
wertpap
trade
children
district
##forst
##kontingen
##.8
##ský
leeren
befürchtet
unr
##ogie
kolum
aggreg
reisende
##wittgenstein
pelz
##tigungs
staatlicher
jin
##japan
streik
stände
##elnd
##ariats
##tot
fus
##arates
weisheit
landstraße
##qv
1855
düster
##agas
##eißen
##bekommen
moskauer
gleichstellung
##obje
387
lamp
publiziert
protagonisten
##][
flüssigkeit
##pez
diener
heftige
parteitag
##tiful
1857
hannes
asylbewerber
##hattan
raums
witzig
archäologischen
pfle
foul
streu
venezuela
jet
eingeteilt
johan
fernando
umschlag
nachträglich
creek
##ßerei
mönch
bruttoinland
##qa
##zicht
##iane
##wski
##konserv
##alisation
nirgendwo
effiziente
##seei
##rockner
gestellten
fertigungs
165
1854
##jün
##orum
elfen
aktuelles
##knoten
fressen
1816
##ablauf
torped
##emn
##gir
schießt
verständlich
2008.
ruine
geschul
nationalt
rüstungs
weitergehen
##haftes
gehöre
stärkste
##rädern
##orientierten
renovierung
erobert
ambiente
##ogn
##karren
##pflanzt
##gj
search
verwaltungssitz
errungen
vernunft
strafen
mam
##riesen
##weich
gill
##okolle
ergänzte
1858
hies
kärnten
sensation
##netzes
mz
waschen
freising
heimlich
verkehren
##saint
audiovis
epi
##fraum
##istiken
gültigkeit
##/21
##organe
##gräber
##splanung
##fühl
##cript
anbietet
##ylen
claude
bistums
begrenzung
1852
verschieben
##schreitende
irw
stücken
fließ
krankenhäuser
partnerschaften
330
iris
überarbeitet
##brüder
schlich
verlegung
kid
##heizung
ör
##ettes
trikot
zehntau
anerkannte
##zölle
tell
1813
##vgg
chip
selb
##lloyd
dark
ähnelt
##höhle
defensive
##zier
autobi
klettern
##sius
nazis
archäologische
##früh
maastricht
gesamtwertung
##./
gan
achse
landung
##ürzen
##sieben
##bremse
lauren
platziert
wirksame
anregungen
saul
##tus
##esr
##ortes
überführt
nebeneinander
verhältnissen
unab
jerem
handschrift
mob
##samer
kultus
pyeong
hubraum
ingolstadt
##event
##amerikas
steiermark
shows
dutzen
##esie
##shil
georgia
gewählte
behauptete
yu
##llose
##pfiff
betreuer
##olta
##wikipedia
bekanntheit
##zuge
change
generiert
dokumentarfilm
##omi
##orenen
oma
übersetzer
##inie
##ausend
passwort
vorschlags
##(1
107
drink
berühren
materials
##reserv
aaron
tomaten
5.000
äußert
antwer
##einsätze
##swerten
jahrzehnt
habilitierte
##rätin
seiden
##hoc
##olia
##öste
kostü
mv
passierte
##jana
##acker
vorbeu
590
##chr
##'000
gräfin
spalten
##angehörigen
versicherte
aktions
spalte
einwanderer
studies
##/05/
##bricht
rwe
1818
kostüm
verhältnismäßig
atp
nachdruck
##4.)
##sterb
##auftakt
easy
karol
unzählige
##hydro
schiller
franziska
meinschaft
##kaner
marl
herauszufinden
##50.
verzer
söhnen
dortige
raj
wunderbare
begehr
trost
nev
simone
bischöfe
trü
anatom
längen
meldungen
biegen
vorsieht
president
kauft
##reichte
typischer
soviel
##üttet
##drungen
##ässiger
ausgeschieden
profitiert
##7.)
##ends
ethnischen
##ulationen
irr
mangels
##roth
##schlägt
teller
schritten
formulierung
kostete
nigeria
lipp
##hema
##ović
rechtfertigen
ik
gesenkt
##amann
sätzen
##stöck
tess
iu
gefährden
##rue
##chtung
müßte
##kate
##woll
ion
##mischung
##-07-
##bedien
provo
hex
chel
kartoffeln
durcheinander
##guss
##wollen
umgangs
##verluste
brennt
nils
kanzel
33.
##rissen
kraftstoff
uneingesch
##utze
ewi
##grand
bundesrat
schließ
##cture
##bekannt
wertes
##verwalter
strengen
fachbereich
##/02/
##asar
##change
##spektive
extreme
weitreichen
lod
einwanderung
2009.
käfer
friendly
getrunken
mitgenommen
##bag
##strik
verträgen
arbeitslos
wiederzu
aufregung
webseiten
##tica
darfst
präsidium
wacht
##othek
bewahrt
tfjo
angebots
angeben
gesunden
zonen
pyeongchang
geistliche
nk
##agon
langhaus
##bog
##pell
##prozen
drittes
kommunale
radar
##spreise
chat
geflogen
schadens
##nahen
glasgow
theaters
encounter
verwickelt
hervorgegangen
##alex
aufwänd
brannte
skigebiet
##beträge
realschule
##cours
##stagen
##wirtschaftliche
melbourne
##ätigt
schönste
zweitligisten
saale
absturz
##zheim
schätzung
##montag
woran
classic
erteilen
##paare
##ÿÿÿÿÿÿÿÿ
vollendet
langzeitarbeits
anziehen
##ssicherung
eingeführten
##busse
genfer
besprechen
deckt
##indikatoren
##/30
cust
##aufbewahr
##rod
##sprit
beurteilt
spec
2013.
überraschen
##grünen
##verträgen
##ogne
##defop
reisenden
besichtigen
nazi
franch
##gesprochen
phosph
kontingen
ungarische
kennenzulernen
##2]
##live
##kader
##rode
granit
überd
bildenden
gulden
baseball
pünktlich
veterinär
lieutenant
einheimische
penis
pont
##ources
schwär
##schalten
schöpfer
überfall
komponente
##chse
##spezifischen
##marck
guido
fähig
obama
zivilisten
gleichwer
bandbreite
vergehen
##ippi
anschau
##gefahren
fahrplan
umfragen
##song
besagt
gaststätte
kostenloser
drehbuchautor
alois
mutmaßlichen
silver
erwartete
händ
bauzeit
stimmungs
##marine
##steins
##utta
myst
##spektrum
##dire
1820
stört
##datenbank
unschuld
niel
##ganz
##teles
nien
erwarte
vernachläss
naher
bunte
##eiste
1846
##übertrag
gepflegt
##ikos
##mör
##breiten
fachleute
kameraden
hochwertigen
##plex
beliebtesten
method
schmitt
belastungen
##transfer
##hec
##schauspieler
zerstörte
##sdorfer
belief
##agnet
##-02-
monten
##lay
##krei
##ibus
integrations
schwab
elektrizität
sensor
plaza
##vielfalt
##gae
gewohn
problematisch
(16)
dele
eingereich
##nw
##elie
boys
feierten
schmeckt
##-22
sammelt
unterbrechung
##akti
##eigung
##zweigen
##korn
individuen
berechnen
(185
hilfen
städtebau
##nz
##gret
cheftrainer
##heft
ausgeübt
meeresspiegel
##arme
##tore
113
##guide
##artment
intend
##streut
##wachsen
sevilla
zuges
##("
##asso
##indizes
landet
##apost
gruß
zusehen
##-17
##geg
bombard
##salz
##useppe
fed
astronom
##versorgungs
kiefer
small
wertpapier
boom
backofen
oberlandes
schüsse
##atra
##skrit
##symbol
100.
lüge
parker
shakespe
baumeister
font
##gewächse
1:3
kramp
frühlings
##odore
bond
partic
hinterließ
##share
##geschehen
mathematiker
##interessen
mitwirken
gestört
schlamm
streitigkeiten
##vironment
folk
sonntagabend
1.2
cooper
##ppeln
unange
lanz
unum
##clo
dob
georges
erweisen
##ued
georgien
##":{"
##19.
aktionsprogramm
versammel
generaldirektor
##enna
barm
rauf
##kussion
xl
gewei
verlangte
##ografien
bekenntnis
läu
nig
##mischen
trennt
##bedingt
westlicher
##komme
worüber
melodie
emmanuel
einzugsgebiet
##dun
##itime
##füllung
umsonst
repräsentiert
##normen
kommerzielle
right
chemikalien
##volk
fürth
benachbarte
innern
schriftlichen
##ymne
abgrenzung
##normal
tolles
verpackungs
##eigentümer
##%).
(17)
adrian
##platzierten
(12
langweilig
lehmann
1700
##formate
cookies
pip
##ordnete
östliche
##roten
neei
bekleidung
5,5
##zwecke
ratten
hinreichen
eingabe
soeben
##champion
koordiniert
riga
brasilianischen
##gens
plug
##freundliche
niederrhein
magst
schorn
großstadt
sicherungs
stillgelegt
edgar
herstellern
veranschlag
##()
##/09/
##door
##genau
##chtigen
##lautern
beachtet
sendungen
##itive
geborgen
locken
##roh
chinesen
springer
##tc
##ikers
mitzu
pokals
sieges
elefanten
jeglicher
zi
##flossen
zolltari
share
##übernahme
wache
railway
##ogenen
oxid
unterschriften
geburten
worum
letzteres
restaurierung
fem
enz
vermieter
befragung
konsumenten
##kommunikation
##prie
adop
palais
herzens
##kehrungen
340
wahrung
geheimdienst
fleck
besorgen
angemessenen
graham
mim
##doppel
gc
##heims
mitarbeit
schmiede
##ufe
##belt
##polis
##stechnologie
moore
lebensdauer
##onde
##aktiven
account
27-
89/
colorado
literarischen
großherzogt
orientieren
portugiesische
##iee
around
##austr
zügen
angelegten
##alarm
erinnerst
turniers
niederlassung
##atzen
##condado
packen
knappen
##benen
laune
harris
##haushalts
unvergess
demonstrationen
ivan
##stimmungs
##institution
##/-/
##tab
weltmarkt
rain
##gala
##iber
##flieger
knopf
übrige
vancouver
fotografen
##formular
direktion
166
iwan
zuversichtlich
ndr
justin
##festivals
##spanien
kunstwerke
dimensionen
##älzer
canad
massnahmen
##lagern
aktivisten
bale
retro
gefangenschaft
natural
impor
ankara
brise
##nig
kabinen
begrenzten
##80)
enei
##asmus
terra
##prochen
gesteckt
zugeschnitten
##icon
untersuchten
4:
bologna
dreizehn
gabe
anwalts
##schmu
jenny
kommunisten
accommodation
hältst
jesuiten
kanadische
lith
##tsch
gesteuert
##ankte
boxen
liturg
##vw
##höhen
huss
nace
auffallen
unterbringung
##ansprüche
konsequenz
ibc
enie
nähere
neuere
##/-/-/-/0
##spunkten
##anzahl
##mässig
##etal
apart
hühner
cousin
wah
sultan
einwand
strassen
vermeidung
bemerkung
##fx
1847
amen
feinen
lufthansa
keinesfalls
überschreitet
##lizenz
arsenal
gewerblichen
##roe
bewir
besaßen
verdächtige
##sellen
auszur
wehren
detroit
1814
##kohl
##grube
benutzte
ausführliche
warenverkehr
ai
unterm
leitungs
zivilen
##)".
##–15
118
legal
schnittstelle
##ource
##eichef
##-23
contro
zerstörten
wunderschöne
mehrzahl
##nehme
stalin
absolventen
ees
##plans
ueber
erträge
verwandtschaft
ortskern
1,1
korps
burger
beläuft
##angelegenheiten
##qi
##atemal
amtierenden
aufgegriffen
transaktionen
##ogene
vielfältig
##tm
##3),
rezens
benachrich
literaturang
1,7
princ
lr
verwalten
dead
##urkunde
beinen
gerichtshofs
##ipend
gary
future
vereinigt
generalmajor
##-27
statistisches
##ckern
##gebe
##labor
abnahme
tagsüber
##worter
officer
umgestaltung
##kante
##iba
feine
##weihnacht
manhattan
verwandeln
rapid
shopping
enterprise
khan
delta
##gewölbe
optische
dell
secret
keu
aser
libert
##kauft
144
##griech
mys
biber
sprang
erlass
anfänger
##atin
##snetz
nachgedacht
##pact
##designer
bedauern
gewerbegebiet
##enne
##antritt
gap
##duo
##parteien
gedruck
ausländischer
##otter
##dj
hag
malaysia
einweihung
summer
2022
lincoln
berührung
stärkeren
##tte
gemischt
landesstraße
##ull
spül
abbildungen
##prüfungen
vernetzung
verbreiteten
##vollmäch
20%
mordes
auslaufen
verkörper
vervoll
anschauen
##lieferungen
##aufbewahrung
kids
##gewebe
opera
brandt
tropischen
verblieb
hummel
##fee
disc
eo
##reichs
bmt
##reaktion
even
schlager
misst
##express
enormen
##raph
bäder
säule
fröhlich
##3.)
##ogl
rwi
##gegenüber
bundeslig
##schwerpunkt
##beirat
genutzten
minnesota
bh
lautsprecher
meiste
bauteile
eignen
verbrannt
##raße
erlös
eurem
kurier
flexible
schuppen
##kompl
ventil
mediter
frä
kong
##seller
tasten
##uy
immen
##/03/
(2010
schloß
##esk
117
andalus
electron
(-
mosa
gekämpft
##verkauft
fremdenverkehr
ostpreußen
effizient
##krankenhaus
besteuerung
bewal
##schauer
##fizierte
enzy
talk
gehalts
nsu
92-77
##dumping
marktanteil
louise
##andele
verkör
##inspektion
##lyque
gemäss
antwerpen
optimistisch
##baidsch
26-
geführte
juristen
##dün
##anfall
amtlichen
erhob
mexikanischen
##ußts
schläft
eröffneten
##undete
##wanderer
##ikanischer
##fürst
(2000
fieber
##ichtungs
zwangsläufig
##60.
##leitungs
holstein
okr
symmet
auslösen
tendenzen
##loe
lic
##group
bekanntgegeben
bürgermeisters
php
greif
gla
antrags
nannten
pfosten
cec
schwerwie
cockta
##anal
##etzug
transform
ortsteilen
zielsetzung
based
korrespon
+++
flei
whit
##zieher
förderverein
francesco
besprochen
geheimnisse
##iae
##ignon
überragen
##sperren
##agerten
schöpfung
##umgebung
jahrgang
beschränkung
kommunalwahl
##/06/
weltwirtschaft
dow
##ffee
##angeles
##oux
feldern
großartige
bezwei
##haltigen
talente
libyen
hemm
##arina
öffentliches
katalonien
##schwanz
republikaner
##gewinner
besiedlung
geschlafen
durchzusetzen
klick
getrock
nachwuch
konservative
##mh
##ław
jüngster
schulung
##spflich
##lc
##annel
uber
##enswert
##(1)-
werkes
##konzerns
meet
##alisierungs
##stimmten
##arium
amtierende
##.6
veränderten
document
verpassen
##anas
##untersuchung
produzierten
zink
einzelfall
nacheinander
wortes
objektiv
highlight
mack
emily
gürtel
0,2
##urteile
verantworten
gos
anto
sonstiges
sportarten
53.
0,1
hinab
japaner
fünft
##bos
##übereinkommen
strände
universum
##verpflicht
asiatischen
ulrike
##spielern
besetzte
jüngerer
##arktis
techniker
schlagzeilen
globalisierung
cv
wertung
schlauch
metropolit
##egg
##stärk
1835
##ashion
fries
gleise
kabine
positives
recherche
führungen
fachkräfte
##sind
##ennamen
walker
##rezeption
electric
ehc
##zeitungen
##rz
filmem
invent
herausge
salvador
##französischen
##chat
irische
künstlichen
topf
panama
rumänischen
##fore
pod
fertigen
##30)
##demar
##irmingham
unsicherheit
gera
verär
elektri
auswirkung
wohnfläche
roberts
verheer
gattungen
selbständig
##kro
##ables
gebietes
marianne
##staub
solution
##eigene
wöchent
schnabel
erlernen
aufsichtsrats
tropfen
jüdischer
magie
##weiterung
##cole
heit
besuche
picture
aht
köst
erfaßt
##egal
strasse
inbegriffen
prozentpunkte
programmier
ks
##ements
##ündigt
corporate
##richtet
frageb
##aufträge
##rae
akzeptanz
##äer
luxuri
wüsste
stellenwert
##2009,
##schneider
verurteilte
##rell
##artiges
##ühlen
geltungs
ammon
##anwendung
bestreiten
religionen
##cki
rica
##kostet
ausschluss
brandschutz
##52)
##wichtig
##rde
durchsetzung
claire
neusten
aufpassen
##konzep
philosop
gefangene
vermietung
administration
giuseppe
mia
##thing
fälsch
überhol
##7€
##cache
lion
##auchte
##chancen
ausgrabungen
beeinträchtigen
##=16
kings
##schwein
##falle
reinhold
bewundern
##gitarre
##anhänger
gerichten
letzterer
delegierten
mort
glückwunsch
##dör
##stechnologien
##-24
guatemal
freilassung
##agno
##food
##künften
apparate
grant
##iqu
fitz
##federn
##ikten
urteile
hochrang
##seil
götz
3.000
fehlten
wohnort
anlehnung
ungewöhnliche
2.2.
borde
kegel
quest
40.000
diana
##inenser
##verschie
##attra
schwand
director
##versprechen
##etch
##gli
##krankung
##urb
1.3
bram
eind
pizza
hoffnungs
aufgelistet
verurteilung
amberg
mangelnde
stal
hawaii
1853
##klingen
visier
##skandal
nacional
wittenberg
##öne
schubert
auftauchen
keil
zeremonie
motorsport
ökologische
einzustellen
porzellan
verzögerung
iene
kraus
##mac
##teo
aufsteigen
gestalteten
##bz
zunge
maurice
primar
##elementen
erteilung
ansiedlung
##beauftragter
##fische
explizit
education
##untersuchungen
##plung
##scheln
belohnt
xbs
grass
##schritte
program
abgebildet
##hea
split
gefühlt
kommentiert
rühr
##–1
##nar
barry
hilfsmittel
##occas
##qlyque
##ängste
helfe
sorte
labour
##premiere
ortsname
##bea
ia
##komitee
##:)
riet
angeschlagen
##=4
##ceh
fig
ankl
mood
weide
freiem
stürzen
beruflich
terroristen
ceo
spezialisierte
gus
errech
##haltungs
tierschutz
##hae
athlet
nj
##ätige
##bänder
##merkmale
##kriegen
belgrad
rg
sockel
studen
##bibl
##nale
invol
ansteigen
##stemperatur
zinn
##/25
leonard
irgendeine
herrschafts
jedermann
recycling
verzögerungen
finan
hauptrollen
##/04/
inee
trasse
sponsor
unterworfen
gg
##211
wachen
befunden
milliarde
regierungschef
naum
lazar
professoren
nim
##zan
gw
taufe
ausserdem
aktie
##ziffer
spvgg
dramat
hölzern
verfolgten
##7),
aufgefunden
##lacht
gebl
toul
##fingen
linda
pascal
sascha
geographischen
##ives
invasion
##sauer
##kerl
think
ausbauen
verankert
nachmittags
ole
##okomotiven
abweichung
feuerwerk
172
zim
rabatt
##geübt
unerwün
elektrisch
gebietskörper
trent
bestell
intensität
bret
##heorie
##studios
hern
elektronen
ian
willkür
##riter
kollegin
##isol
atmen
karaoke
##slos
aufführungen
##verfassung
karosserie
heyn
##gelegene
##llner
wänden
enttäuschung
##osophie
nasen
milcher
##interview
läden
wirkliche
##lp
##ienna
unheim
116
gelei
##schmuck
behälter
produktiv
follow
teilten
legendären
multimedia
generalstab
erlaubte
warme
##tasche
##ßend
##ioden
curt
vorname
schiffes
panoram
1843
naja
kartell
beweist
##occasione
##studenten
hain
##fähiger
##unabhäng
##geblieben
reinigen
festnahme
exemplaren
169
sec
vou
ökos
ruhige
vitamin
##august
solide
umland
beautiful
##ciudad
##kursen
aufpreis
hinterb
systematische
##wunder
saw
##gling
##prinz
entschuldigt
exemplar
fahrgast
##vize
##itiver
##darm
wps
##azins
saßen
##unfälle
beratenden
##qt
##aufe
yeah
##vill
294
stä
verbleibenden
##sis
euph
jessica
muz
##these
dirig
ausschüsse
genauigkeit
beschleunigt
##kaden
##sidium
beginnend
antwortet
broschüre
gebildeten
erstligisten
säkul
historic
kämen
gesangs
nahverkehr
kindertages
nordseite
esp
##opul
manufa
##arktischen
langes
geometr
stehlen
indikator
##/#
une
morph
rechtsp
angriffen
uss
##strie
echtzeit
##produzenten
klinikum
##erg
werkstätten
##mantel
##ocia
glock
geglaubt
entstehenden
jerry
blättern
suchmaschinen
patron
##gender
##serwart
schuster
durchführungs
##exp
##zins
jis
##atory
##sache
##syndrom
podest
##staatsanwalt
##ashi
imag
##immobilien
biz
##true
mül
opa
##vorlage
theresa
kaiserslautern
##nau
##commun
bayerns
370
unterstützer
gewonnenen
diplomatischen
gly
theorien
instrumental
ethik
pauschal
##-29
##menten
dallas
miguel
##2018,
aquar
franklin
radsport
geschützten
##erre
doping
gewährleistung
##kit
dream
hilde
##lev
toskana
southern
##ová
vag
angeregt
continental
##jack
##ständischen
schnellste
außergewöhnlich
##hey
ede
kemp
bibliotheken
##reckt
relative
##-3-
##relev
untersuchte
##hter
##anced
verzeichnete
##uez
##leans
##stipend
heilung
therapeu
soziologie
anstehenden
##lux
räumt
##voe
neie
schrecken
erneuerbare
##iera
##rill
roß
gemahl
laptop
##ubst
teure
##technologien
einzurichten
##('
64-
rapper
##ilia
##ning
430
zielgruppe
pädagogischen
##former
isoliert
kreisliga
(3),
ökumen
zusammenbruch
##coun
prager
##reste
spin
##legende
##jfm
##kod
netzes
##enträger
sichtlich
neuerungen
impuls
niee
##befrei
ingrid
friedhofs
portugals
##oler
nassau
atlanta
mathias
gin
##inhalt
boulevard
elena
122
##anker
##ithmus
##ikts
gestoßen
sportwagen
##__
brom
etappen
unterstreicht
##äht
minimum
schalten
##golden
##seer
verschwörung
jay
eagfl
gewinnung
##absatz
gewitter
kommentierte
fahrräder
killer
potsdamer
review
##hetor
kill
mager
eurozone
leutnant
drk
202
limit
##serfolg
auftritten
verkehrsmittel
aga
##itals
##glieder
glänzen
rückwärts
vorausgesetzt
plante
schreit
oy
achim
anspiel
##lava
36.
edmund
##taine
kultiv
heimatland
pistole
##direkt
capital
walk
archäologie
##flag
##poliz
##cester
(180
##üge
mog
annehm
exposition
##atr
##werter
angetreten
##pter
befri
##wandern
sexual
##-13
1844
2007.
##??
##dsa
##1987
clara
helen
stuck
##sexamen
##hals
erörter
gelandet
##ividen
##stexas
ull
palästina
##pes
bravo
##bischof
ravens
slowakischen
##grau
jü
##ving
palästinenser
bauwerke
##1).
##ollen
prestige
teilnahm
##mität
numer
200.000
ägyptischen
##sah
##willig
infrage
einfaches
lufttemperatur
##atell
1100
ausfahrt
behinderungen
hintereinander
kors
##statten
##üle
##deren
##besetzung
##sichtigen
##usel
2,4
kalkul
##heiz
##ires
haas
schlechtes
allg
##panzer
filialen
bekleidungs
klassischer
##radi
turbul
##tanz
río
##tätig
kolonien
geiger
anstellung
##cord
##cont
850
##oklyn
##änken
zagreb
##john
imago
##schutzgebiet
nancy
wirts
hervorragenden
##26)
##quin
ats
##mikro
salt
horror
beiträgen
spiritu
##neben
eeni
vaku
relevant
().
airbus
release
sinfonie
......
anfallen
verstärkten
lb
##title
sollt
springt
abonnement
heidi
##summe
13:00
##obi
##beamter
niederländer
kreuzfahrt
nebenfluss
cau
##comment
aktivieren
selbstständig
##odie
haftbefehl
aserbaidsch
def
##ovolta
kircht
quanten
breis
bremerhaven
##thr
beeindruckend
aids
alexandra
##qp
weiterlesen
##qx
lenz
unzureichend
2000,
##üste
transportieren
##youtube
vorgehensweise
bekräftigt
##agua
##später
diesbezü
transaktion
nasa
sigmar
##sow
anbel
einzul
gesteigert
##ssd
motiviert
##besp
##ürzten
##provider
sensoren
0,3
häm
gentl
rasche
##monaten
vorigen
##opel
##ances
##stabil
motors
vierzehn
konstitu
##revier
##werkes
##anfrage
angefochten
rückgabe
sommerferien
berief
forest
tät
##feldes
##you
caritas
pressesprecher
##:9
hybrid
inland
different
effektive
vorlesungen
admiral
##igend
slalom
gemütlich
##gebrauch
beträchtliche
obgleich
##kurve
wäsche
montags
##eul
stabile
</
##starken
benediktiner
##lauer
verläss
zün
ausgezeichneten
australian
##-2-
114
befriedigen
patente
lamm
visa
ausgrenzung
thun
ausstrahlung
126
zwecks
hes
pakete
tagebuch
##zusprechen
##blo
##iffeisen
beethoven
geliebten
##entag
liberale
commander
vergleichbare
##öpf
dietmar
kindergärten
##icas
##stei
##uu
##martin
modus
##autschuk
ständiger
betreuungs
bedanken
differenzen
vereinfachung
##aume
wiederkehr
interessanten
##llosen
piano
[1]
stel
1810
square
harmonie
erreichung
gymnasiums
zufriedenheit
##dek
##loses
behindert
kundenservice
##emaschine
anpassungs
kee
##etzugang
schreien
eigenständigen
(90
##ehrten
##9.)
aufgelegt
##arin
##derer
fris
2018:
ausgeht
cih
1832
ausstieg
eindring
##ära
guck
betreute
bisweilen
subventionen
alba
agieren
sozialfonds
devis
##gletscher
##partie
daumen
hierdurch
##fire
##abgaben
kennedy
lizenzen
debütalbum
methodik
teenager
behauptung
##fällige
öko
##sprüf
erfahrenen
schiefer
erbringen
kartoffel
interdisziplin
##seen
nickel
fotografien
##bergbau
fällig
sophia
christentum
jeho
andert
pall
sulz
ernähren
##nv
##tics
##ök
ld
kehren
##elektronik
offenbach
5)
hod
meppen
##tyr
ark
nin
reißen
##senkirchen
mazedonien
beherrschen
##joy
tina
berlinale
beta
tenor
##spraxis
tschüss
kommunizieren
wertschöpfung
(18)
fristen
theoretische
roberto
##afel
35.
wetz
##itzung
clever
bedacht
kurzfilm
verhängt
hochschullehrer
phone
entschloss
geschieden
menschenrecht
##/87
marg
atember
rückrunde
observ
##leuchten
entgehen
##mai
age
peace
##kameras
vegetation
290
zement
##haftigkeit
34.
1836
##festen
##ization
entzogen
##:8
japans
zeichner
kaninchen
theoretischen
##rafen
blöd
kelch
phill
einmalige
ingenieure
##regie
vok
##decker
publizierte
##4).
gemeinderats
##splätze
besetzen
gett
##ists
##mails
belange
variiert
##hubschrauber
##lust
grundrechte
##entums
gebot
fasste
vorort
strahlung
+1
ibm
arne
grippe
beheimatet
wiederholung
krüger
zurückgewiesen
##stehung
geänderten
mahn
danzig
##agi
regina
feuchtigkeit
##jug
cash
bundesstaates
colum
prolet
##spanne
treffern
gründlich
386
nne
theologe
versteck
kanäle
ranger
besessen
stadthalle
##,6
emerit
maurer
##nne
damas
##entscheidungen
monaco
erbracht
lieferungen
joy
##ashog
##orgel
##fasst
radikal
gefallenen
ludwigsburg
rechtsstaat
##70)
##pilot
##fernseh
#6
##inder
##ausfall
streichen
##reens
##anstieg
##itations
##mehrheit
##slalom
pumpen
variieren
wiedergew
##kammern
##friedrich
physiker
übereinstimmen
achsen
##aktivität
##avy
##lah
##abent
dünge
braune
fenstern
##ütteln
billiger
##map
abreise
##räter
help
##garantie
##kilometern
auszubauen
besitzungen
##"}
betrachter
entdeckten
##atar
kod
##gebnissen
beschaffung
##18)
rachel
erstellte
gesamtzahl
zurückzukehren
##haw
ggf
romans
brems
herrlich
kreative
verdoppelt
##seminar
mechanismus
schreibe
hta
##bunde
austin
##wirtschaftet
##singen
okres
gate
##flaschen
anderthalb
##zzi
##verbrechen
##hcn
luca
garnis
paras
werkt
##seu
##seln
##sprogrammen
yam
befäh
personals
##:7
##bzw
##dates
zeche
##num
björn
ordentlichen
agri
körperlichen
##usch
weitest
engagements
bewirtschaftung
##qj
##sliga
fähre
verwundet
porn
maske
winden
strukturellen
detec
auslöser
jennifer
1.0
posa
##wünsche
nash
rüssel
leonardo
##agl
##tico
##steck
133
##kland
doris
teher
entziehen
##[1]
##zugänge
syrische
angreifen
erschwert
##agern
##ächte
##uelles
##deckten
##ruhr
pok
ub
kompanie
aufwendungen
lächerlich
##dog
##preisträger
##bae
##vorgang
##mayr
##virus
räumte
namibia
herstellers
stapel
lindner
belegten
process
gesetzen
journalistin
anz
##dorff
wurst
##pendent
##problemen
bé
hürden
inlands
geflohen
##norm
unterschrift
bw
##orff
insassen
##emi
##icana
unterzogen
fk
##liber
1837
##saft
6,5
##münchen
abholen
##tierungen
modernes
eden
öffnete
8000
##hütten
##fler
nathan
##mechanismen
##ansfer
##diesel
untergang
afrikanische
##ossa
##tea
beamter
##ussten
luck
medi
stumm
1839
mine
zent
##justiz
##projekts
nominierung
##infar
kriegst
optisch
verursachte
##egro
djk
kalte
medikamenten
##fere
routen
rückspiel
theatre
##mnt
synonym
bedürfnis
abwicklung
##qua
reiß
schrott
ochsen
##ouse
radweg
##donald
less
petr
##balken
##frucht
handele
tagungen
befaßt
klassik
unwetter
wirklichen
##starke
ewigen
ärzten
verungl
##varianten
##tf
angefertigt
##penile
protesten
tul
bukare
liebst
welter
173
35-
frise
getriebe
##renz
bananen
cedefop
vermess
komplexität
+0
urauf
verletzen
##gartens
##mix
durchsuchen
interventionen
rita
binde
köhler
##gebrannt
##ioxid
##früher
draft
##vals
renate
kreisstraße
generals
groko
##wilhelm
##okt
member
##verbesser
anbelangt
derartigen
geringfügig
seinerseits
bgb
gekostet
jubel
überqueren
orientierte
##amarillaslatinas
hai
bekanntlich
polens
##qg
gegenden
##vf
sportverein
##idas
124
kunstgeschichte
1821
versammelt
##penilefitness
ludwigshafen
##mk
ute
(195
verarbeitungs
kinderbetreuung
sey
##orientierung
nomenklatur
humanitäre
##now
sofa
denkm
##schwier
rothen
anblick
einreise
kündigung
verpflichtete
##china
kreuzer
geschütz
thematisiert
##buchung
##berliner
weswegen
rer
schmitz
##felds
facil
##freitag
product
bestattet
##barkeits
##tempel
##struppen
gutachter
perfekten
lebensweise
mtv
##music
##tek
##roph
##assan
##fteten
kriterium
fh
##iani
close
auslieferung
##defizit
##laufbahn
überzogen
##stäbe
1842
walther
blockiert
reif
##minute
##pierre
##profile
verfügbare
##hyd
127
gertru
hk
kbis
palace
##ographien
##20,
##hrin
##ctive
fungiert
(20)
handhab
sell
rechter
##kraftwerke
orleans
149
plün
zivile
##qn
##sit
strals
furchtbar
wahrnehmen
##buchs
sien
##zulande
kanonen
shuttle
##tario
schicks
##angehörige
musikschule
##gent
einsetzung
ministerin
gegenwärtige
sé
caes
##strong
dolmet
##bow
rafa
kieler
pfingst
skal
versagen
assistenz
six
##absol
stadtteile
außenpolitik
##print
zitat
untert
gliedstaaten
heisst
zweige
verlierer
weht
erlaß
living
körperlich
##anf
obdi
seoul
##enig
sot
##/2000
rüd
spital
recherchen
wechselkurs
##habe
comedy
geistige
treibstoff
##eug
##sir
##gnern
untr
##inischen
##berechtigte
kairo
fleder
vorkommt
attraktiver
##force
##anischer
(19)
schultern
vorhin
ausdrucks
kavallerie
gestürzt
separate
besichtigung
kapitalismus
α
cc
##aktien
gebauten
hierzulande
##köl
henne
anregung
images
freitags
sehnsucht
+32
##sturz
haart
##klausel
thorsten
überlebenden
zielsetzungen
wallfahrts
trainierte
##widrig
##abschnitte
triebwagen
##xa
kamm
##ticket
verschwinde
##centr
##bündnis
##lis
##rah
-1
clinton
bewährung
bibli
starter
ertragen
schlesien
regulierung
##verantwortung
bestellungen
0:3
echtes
speyer
klöster
##dz
##lley
176
eeg
##auscht
gebill
##urger
##astik
##internet
##gebrachten
##schleu
##kollege
biathlon
wachstumsraten
style
schill
##geschickt
gebaute
##zuteilen
herrschen
gefäl
pauli
kondens
bundesinnen
##esc
abständen
##schenkel
hinspiel
branden
massage
friedlich
##sible
gebrauchen
pig
agnes
erteilte
##öpfe
äußersten
ausgeprägt
diplomaten
stattfindenden
##wier
##3€
##anisch
gesicher
##vorhersage
##look
##festes
präsentierten
##itzerland
1841
##87€
fahrzeugs
pius
##packen
##report
execu
carmen
palma
##ängliche
haustür
nova
hoffenheim
60-
bub
haß
umz
brenner
gliederung
##dia
##formel
vu
hiv
pfeiler
getrennte
##merkmal
##facebook
ignoriert
##ipper
prämien
lüneburg
regensburger
bung
hunt
hofer
same
##gebäuden
industrien
##_4
##uladen
titeln
##kaiser
##brüchen
problematik
rettungsdienst
fantasy
russell
extremen
angehoben
inhalten
fantastisch
wanderer
australia
##omas
##agung
##pfeiler
##berichter
unterhaus
##wurst
##munder
brooklyn
politikern
indiz
##schreib
##schaltung
gabriele
vere
lübecker
prognosen
befreundet
zolltarifs
haltet
herzogs
##stehender
einreichung
##nisch
##becher
##spital
2017,
verbieten
##act
drang
endrunde
##pfad
##zuges
niklas
##hic
puzz
##oberliga
schreiber
verschärft
lloyd
##größten
gezielte
sonnenaufgang
##uli
sony
##tafel
fügen
gegossen
##ej
coast
mittelmeerraum
entfielen
##putern
ernest
##gottesdienst
##ypagescal
hingerichtet
##bens
##pran
##quir
gezeichnet
nationalrat
"...
biel
lobt
rudi
ree
fame
##übungen
unauf
##tiker
akzent
skip
[...]
